  t
  a
h e
i n
r e
 t he
o n
e r
  s
  w
a t
  o
e n
  c
i t
i s
a n
o r
  b
e s
e d
  f
in g
  p
o u
 a n
a l
 t o
a r
  m
  in
 o f
  h
  d
\xe2 \x80
a s
i c
 an d
 t h
l e
o m
i on
l l
en t
  n
  l
  re
s t
v e
  e
l y
r o
 b e
  g
i d
u t
a c
o t
  T
  I
 th at
  on
a y
  S
  is
e t
i m
a m
a d
o w
s e
i g
 f or
\xe2\x80 \x99
  A
v er
u r
c t
l d
  C
  u
 s t
  y
  it
  he
i r
at ion
it h
 w h
c e
  M
t er
o l
 w e
i l
 w ith
 a s
  B
c h
i ll
n d
  P
 w as
er s
 y ou
k e
  \xe2\x80
 c on
 d e
  r
he r
i f
at e
a g
 a t
 h a
  W
 s e
  H
o re
 p ro
p p
u l
m ent
r i
 a re
  D
u s
  1
es t
is t
 c om
an d
  R
o p
a in
 T he
  2
ig h
r om
  (
t h
o d
 n e
  F
u n
u m
 e x
re s
a b
\xe2\x80 \x9d
 n ot
  N
  v
es s
 ha ve
it y
e m
ou ld
 o r
or t
 b y
o s
  G
an t
i ve
 f rom
 a l
e l
' s
 s u
o c
ar t
n t
  L
 s h
 th is
q u
igh t
p e
u st
  le
  E
i es
en d
 c h
 s a
ou t
 a b
T he
i e
al l
ac k
re d
0 0
 \xe2\x80 \x9c
 h as
al ly
  J
 p l
 g o
om e
 h is
ar d
i v
a p
g h
o st
e ar
  O
 t r
ou r
as t
  j
a k
u d
 w or
 d o
 the y
 b ut
r ou
 c an
g e
 w ill
 sa id
 w he
  U
  k
ic h
 a ll
o k
t e
  "
id e
 wh o
am e
an s
t her
i al
 o ut
f f
 the ir
on g
p l
ic e
u re
p t
on e
 m ore
ag e
ion s
ac t
 m e
i ke
 u p
ou s
in e
 a d
e ct
 u n
 ab out
r a
at ed
b er
 on e
 we re
 s o
 u s
o g
im e
  K
i a
 h ad
a re
u b
 in t
c c
 w ould
 c l
 2 0
  im
u e
 wh ich
in d
a ke
e p
i z
 a g
 t e
ver y
 of f
 com p
 con t
 be en
s o
  en
ig n
a u
p er
 T h
ac e
ar y
 y ear
i p
e w
 l ike
r y
v en
 p e
o ok
 in c
ay s
 m an
o se
it e
 re s
 I n
ab le
 p er
or d
 s p
as s
i re
 o ther
m er
 s ome
i le
i b
 S t
op le
 20 1
en ce
k s
ation s
 o ver
ic al
 the re
en s
 d is
ul t
 ne w
ow n
 al so
 th an
 a r
 be c
r u
 the m
an ce
ou gh
ou nt
 a pp
res s
p ort
in t
a il
 p art
re e
 you r
 whe n
 wh at
or m
on d
 pe ople
 s c
f ter
 C h
a v
as e
  qu
 an y
 j ust
 it s
  Y
ac h
 t ime
ct ion
e re
 I t
 k n
 he r
  3
l ic
 re c
re at
 m y
d u
 g et
  if
  V
i an
. \xe2\x80\x9d
 int o
 wor k
 t w
ir st
ou nd
ve l
 n o
ing s
or y
ic k
or s
 o ur
it ion
id ent
o b
  -
 p re
o ve
 pl ay
an g
in k
w n
au se
am p
ad e
h ing
at es
ar k
  ro
 s he
 p ol
ver s
 c o
, \xe2\x80\x9d
 a fter
n e
 f irst
 H e
 c ould
 h ow
 1 9
 p r
i ous
i ld
 a cc
 h im
a w
' t
 p o
 on ly
 f e
 at t
on s
 tw o
o v
r it
ic t
is h
 com m
\xe2\x80 \x9c
f orm
 s pe
 a ct
w e
 s er
he d
 b l
f t
 be t
 de c
. "
n ing
 b ack
 m ost
o od
c k
 \xe2\x80 \x93
 a m
o y
 d id
rou gh
if f
rou nd
at er
 ag ain
  4
u al
d ay
is e
 w ant
u ll
 d es
 con s
se l
 \xe2\x80 \x94
. .
 bec ause
e c
 n ow
l ud
ent s
 year s
m an
c es
ter n
ub lic
 ne ed
 e ven
  $
is s
 in v
 W e
 kn ow
 se e
ment s
 ad d
t ing
, "
o ld
 in d
 se c
f ore
u ch
  5
ur n
 su pp
 m ake
nd er
 U n
 e m
 the se
oc k
o ll
 whe re
j ect
c ed
 e very
I n
ation al
ver n
x t
 b u
 l ook
T h
 A nd
os s
 d on
 e v
um p
at ing
 w ay
pe ct
 be ing
 re m
 r ight
n g
 m ay
i ly
ro w
 the n
ie w
 man y
le ct
  [
 d iff
 de f
as on
 re l
 c all
i ed
 B ut
t y
 T r
as ed
 inc lud
 th ink
ak ing
on t
 re g
) .
mer ic
l es
 im p
 th rough
s s
at h
ri b
 p res
 s y
at ive
 sh ould
 s ay
ur ing
 f l
 l ast
 th ose
ow er
  very
ot her
it ed
 m uch
00 0
if ic
 st ate
 Th is
he n
 sh ow
t le
 b r
it ies
 we ll
ot h
d er
v ed
 p h
 W h
 c ount
ar g
al s
u nd
 do es
 d own
 o wn
ar ly
  end
 as s
 be l
 u se
ic s
t s
an ge
- -
 l ong
 A meric
ter s
in ce
 be fore
g r
om et
 m on
w ard
 go vern
 u nder
 st art
 re port
ib le
u p
  ke
u es
 N ew
b le
 f in
re n
 te am
ou n
 m ade
if e
ol og
en er
) ,
 su ch
c om
 2 00
ers on
i x
e k
 s m
\xe2\x80 \x94
l p
il ity
 go ing
is m
f ul
 wor ld
u ally
 st ud
ist s
 go od
t ain
 a c
e ll
I t
 su b
 e ff
in i
 s ur
 again st
it s
 g ame
 s et
or k
  6
 g u
 po int
y s
g an
l i
ar s
st em
c y
 st ill
rou p
 wh ile
ill ion
 he lp
 le ad
we en
a x
v ing
an k
al k
im es
 s ays
 o b
m s
 pro du
e f
  ent
 g r
 in st
 st r
c ess
 s im
sel f
 con f
i o
 c ol
 t ake
 m in
u res
ar ch
 s ame
 th ough
 bet ween
oll ow
 off ic
e ver
 c r
 diff ere
o ol
us s
ut ion
 pro v
l and
 dis c
a ir
a h
 o p
  ed
 h igh
 in ter
re ad
 n um
 l aw
 s ign
w ay
 govern ment
 R e
g g
n er
h ip
at ch
l ed
am es
an y
t ed
 t er
 s omet
re st
c ent
he s
vel op
W e
 re f
 tr ans
t en
 in s
 r un
 f ound
a ve
 th ree
 m em
 a round
 he re
at her
 m ed
 re al
 us ed
ou se
 1 0
 ex p
a z
 A r
ce pt
o ot
 sy stem
 Y ou
c i
 re ally
 m od
c on
in s
c er
 g roup
 supp ort
p r
  7
 c our
al e
et s
n in
 re t
 h and
 p ublic
 spe c
p h
 L e
y ing
v es
 g reat
 c ar
 ex t
. [
t on
ire ct
 f am
 C om
 c ur
al th
 ha pp
 f act
 ex per
 The y
iv es
 Tr ump
 f r
 w om
 I s
 c ap
 b oth
 d ay
 f ind
 A l
ul ar
 re ad
in es
 s l
o h
ic es
 A s
 d et
 l it
 re p
ut h
 d uring
 S h
e red
 in te
  0
 mon th
t he
is ion
 de velop
 b ig
  8
 p erson
ak es
 f ollow
 c re
 C l
 is s
e x
 to ld
 s ince
a red
m ed
 we ek
ag es
ic ally
i vers
m in
 f ew
ord ing
 c ent
a j
 le g
g et
 pol it
as h
 ex pl
 w ar
 l ot
 S e
r ic
 bel ie
at a
 g ener
 to o
  9
re nt
 o pp
W h
 re qu
 cont in
i et
b ers
an c
 f il
ent ion
 c le
 res p
iz ed
 p ut
 I f
n ess
 an other
2 0
 in f
 somet hing
ch ool
ut e
 D e
 differe nt
 c or
 l oc
 inv est
 s oc
u c
 p ower
 c he
 F r
  '
 p ass
 comm un
 l ife
 pl an
od y
 re le
i ence
 he ad
 th ings
n ed
th ing
 f ar
 ar t
 p oss
o x
 c amp
ar ge
 v ot
 m et
  .
i er
ro ss
Th is
v iew
 ch ild
 as k
iz e
 m ight
 e ach
in ess
 de p
 ne ver
ant s
 ne xt
ie ld
 sec ond
t t
 F or
 m ark
i k
 b us
 ad v
 A n
 de m
 qu est
 com e
.. .
 g ot
 \xe2\x80 \x98
 op en
 b est
i ent
it al
 all ow
 Th at
r at
n ce
 se em
p le
 p ost
 fe el
 U S
u g
 P ro
gr am
 per cent
 h ome
c l
 d ist
 d irect
i red
 inc re
 cont ro
er v
s on
 R ep
or n
os ed
l ess
 res ult
 c are
ate ly
 m illion
 comp le
ch n
 pl ace
 with out
 in form
 includ ing
 im port
 a v
con om
 h um
am a
  ide
 pro ble
 bu ild
 to p
 num ber
 count ry
g y
a im
one y
 B l
re t
r al
ab ly
 st and
 g l
 e l
ri end
 f our
u ro
is hed
t o
w ays
 part ic
 bet ter
 t ri
B ut
 rec ent
 m ov
c o
 le t
r ation
 se ason
 l ess
 t urn
 lit tle
l ine
 be h
e ad
i or
 app ro
r act
l ing
 b ro
is ed
 call ed
 m il
a pp
1 0
 c ase
 d r
 le ft
 re st
 p op
 an n
  Z
en cy
od e
 m ove
in a
 att ack
 The re
m ber
 ke ep
b e
 f ull
er ing
 did n
 ser v
 f un
 m ain
aj or
_ _
 eff ect
in al
 h ard
le g
 pre v
 pro gram
 us ing
 t est
re m
 p ay
 p ri
at ure
 e ar
 v al
 pol ice
 w rit
 for m
 e conom
 p os
 d ata
 new s
 w in
 Americ an
 s it
 ch ar
ain s
iv ing
 sm all
H e
read y
 le vel
u ck
 l ist
olog y
 s chool
in ed
r ap
m it
id ed
pl oy
' re
g er
 I nd
 e as
 pro cess
en se
 ch ange
ir d
 wom en
or th
 cur rent
 re ce
 p rom
 h ist
 d ri
  =
 pres ident
 comp any
re en
 - -
 S o
us ed
 m at
ru ct
 al ready
oh n
 Un ited
w it
 t y
 wh y
 b re
 u nt
 m oney
 s ol
 al ways
 l ater
 ex pect
 te chn
 bus iness
 H ow
 offic ial
r on
  Q
 O b
st and
ivers ity
 b o
 b ook
 P h
a ign
 th ing
 cl ass
 pro ject
as es
 cl aim
 j ob
 inform ation
 or gan
a ff
 B e
 S he
 t alk
ard s
 des ign
 st ory
 ch ang
 m ajor
 ab le
 pro f
le ction
er tain
iv en
 re se
 he alth
 v is
 p ast
ur s
 f ree
ou th
he re
 A d
 o per
pt ion
s c
 a way
 C an
 m ust
 c ity
amp le
i ans
r ist
ur al
 happ en
uth or
 1 8
 import ant
ur ity
 k ill
 s k
u red
 o ld
 p at
ur y
our ce
end ing
 does n
 inte rest
iss ion
 le ast
  est
 g row
 ed it
 v ar
ain ed
 G o
 c ost
id er
ne y
 d ays
el s
 te ll
 h op
 camp aign
s ide
 1 2
 m en
 c ame
 a ff
 con st
res ident
 en ough
 v iew
cc ess
 k ind
id es
 M ar
 S p
o ad
er n
 m aking
 l arge
 rec ord
5 0
us h
 f riend
 m ar
 fam ily
 st re
\xe2\x80 \xa6
 e lect
er al
 pol ic
le y
 t ax
A s
is ing
r or
b y
pp ed
al ity
d ed
ac y
if ied
iv ed
are nt
 unt il
ion al
at or
 polit ical
 v ide
 de al
au gh
al f
  ve
 work ing
u ed
 Rep ublic
ri es
b s
 to ok
 de b
I f
 l ine
is ter
e e
 J ohn
 S c
ain ing
 a ir
 in tern
 f ore
i ol
an e
oc rat
 bec ome
 act ually
  es
ap s
on y
 me an
w ork
 f und
w are
1 9
S t
 P l
 for mer
 of ten
ot t
 E uro
an n
 w on
 g ive
 acc ording
 e ver
y ear
m ost
w h
ar ing
 g ames
is on
en g
 hum an
 s ens
 b as
iz ation
 ret urn
 t imes
 or der
1 1
 R uss
 wor d
 b it
 D em
 n ame
o int
 se ver
 A ll
 de v
ic le
ut ure
f or
it her
 p ar
 19 9
 M c
 C on
 w r
 s ing
 per form
ra ft
 S y
 mark et
 f ac
 char ac
The re
i qu
 O r
id d
 A t
 M ay
 r a
 do ing
 app ear
E R
 play ers
 l a
en e
 n ight
 le ar
ak en
ro p
c hed
at s
 to day
 e arly
 1 5
 se en
/ /
 ha ving
  ,
 p ot
 child ren
id ence
der stand
 ev ent
 med ia
 soc ial
 c rit
 P resident
 whe ther
 sever al
 contro l
ver t
s h
 me et
 w ent
art ment
 f ive
 pro p
 you ng
or ies
ious ly
 su re
 e qu
 be g
 1 1
 mil it
 o cc
 like ly
un e
b r
 mem bers
 quest ion
and s
 p ress
 c ertain
 en g
 w ater
 Y ork
 ex ample
ot s
 an t
 ar g
 s ide
 C ol
 d one
  vers
en n
 inv ol
l f
 M r
 St ates
 Euro pe
end ed
le t
 al ong
 sh ort
 su ccess
ent ial
 month s
b all
 h our
i um
 se x
i ver
i ally
A nd
em pt
 with in
 des c
im ate
 cour se
 f ight
ub l
 am ong
 S te
 act iv
ag ue
\xe2\x80 \x93
u ff
 on ce
 f uture
 invest ig
ul ation
re w
 poss ible
 Ob ama
 ch o
 O n
n ect
 un derstand
it ing
 con cer
  ]
on es
 proble m
 B r
 pri v
 me ans
 v iol
 N o
 C ar
 a uthor
gg est
it ive
 av ail
oc i
our n
m y
 kn own
 produ ct
 n on
iv id
 though t
 p ur
 y et
 ac ross
 loc al
l er
 T e
 h old
ed e
 f ail
in c
 W hen
 St ate
 commun ity
 re ason
 or ig
 pro te
 su ggest
1 2
  &
 m akes
ver age
st er
al d
n ot
p or
b ack
g ress
 201 6
  i
b ook
 ask ed
ed eral
or ld
 report ed
Y ou
ag ed
ens ive
 g iven
a f
 str ong
 pro b
 m us
 other s
 belie ve
 vide o
i ber
 b en
 get ting
 H ouse
 ann oun
g ing
 l ight
ore d
o ber
 Un iversity
an ces
 C o
 3 0
it ions
  ident
ir on
 s ent
 l im
 Ch rist
iet y
 c ut
3 0
ur ther
 c reat
 pro t
 con d
  X
am s
' ve
 n et
as hing
 b at
am ent
 n ational
. ,
 cl ose
 start ed
 sa f
ar m
 de ath
 avail able
as ter
 h ig
F or
 b ased
 iss ue
o f
 Dem ocrat
 follow ing
 l ow
res ent
 l and
u se
 C ent
 em ploy
 l ove
 201 5
 ind ust
  #
 hist ory
 ag o
ort s
sel ves
 m om
 part y
 A m
e b
ab ility
 ser ies
 com es
 tr ying
u ly
 al most
ut es
get her
 to gether
u ment
in ation
 acc ount
A T
 Americ a
 ide a
p ro
 acc ess
ie f
 f oc
her s
il ar
 F l
ort un
 c a
re ed
ail s
 comm it
ition al
 is n
 S en
 cle ar
 1 6
 O ne
 tr ad
 M in
r ing
th ough
 Wh at
 pr act
 add ed
 imp ro
 exper ience
1 5
 fil m
ere nce
 h alf
an a
ust om
 h it
 B ro
wit ter
r ict
 an al
g ed
int on
 201 4
 r ul
ivid ual
 look ing
og rap
os p
 s ix
 l ive
un ch
 any thing
 are a
 comple te
er man
 P r
min ist
 m iss
er t
 Com m
ra el
 E x
 f av
 r is
a i
n es
 pres ent
ot e
ru g
 say ing
ra w
a id
 Can ad
 v ict
I N
ci ally
ow s
 b ad
u ge
ot o
 t aken
 ent ire
 T o
 b ill
 comp et
at ors
 m or
 beh ind
i en
 a ut
' m
 cour t
pl ay
 tr y
ward s
 milit ary
  z
 ne ar
 f ace
 m ult
Wh at
p s
 1 4
 sec urity
  er
 P ol
 pro per
e v
 disc uss
 to t
 th reat
 stud y
 sing le
 r ather
 ind ividual
 A f
 B rit
  \xc2
 qu ick
A n
 D on
 m ind
at ic
 N orth
am ed
al es
 p ubl
ap er
 S ec
le ment
 m ess
r is
 polic y
 bl ack
 want ed
 f all
* *
ir c
o ff
p ar
 f ood
 s um
 some one
ll ing
O n
id s
  |
  /
 c ult
 W ar
 spec ial
 com b
 w a
 play er
 re du
 ke y
 G r
 br ing
 1 3
 comp an
 1 7
p ly
 D ep
 att empt
ro te
 E ng
 N ational
m b
 t aking
 M an
W hen
 B ar
y n
O N
if y
ol ution
  :
-- -
v iron
 f oot
 C al
: //
 el se
 pre t
 b ody
 sp ace
el t
o ver
1 6
 prob ably
ic ult
. )
 fr ont
rem e
 not hing
 c ou
 s w
c hes
ashing ton
 con nect
1 4
 W orld
 rese arch
 I m
 Cl inton
 C ity
m ing
 com ing
g o
 point s
 Is rael
 how ever
R E
 desc rib
 j o
 sign ific
 sim ilar
c ing
 ben ef
 A ust
 im m
 dec ision
 e ither
A d
S o
ac es
li er
 m ass
a ult
 c oun
 t arg
ull y
s y
 fe at
Th at
 con v
 H ar
 ex ist
 en c
 201 3
ir l
 right s
 serv ice
as ing
I S
 f ire
 d oc
 w rote
 f urther
 h ouse
ro du
w w
 f ig
 ch all
 b an
 th ird
 cre ate
 st op
s w
a pe
 f ield
 p ick
n ow
A N
em ber
ive ly
 me as
 com pl
 re pl
 W ith
 iss ues
 beg in
pp ing
am er
 st ep
ent ly
 who le
 rel ations
 seem s
 S u
  )
un g
 compan ies
pe cially
 d ue
 ex ec
 c and
 every thing
e al
 f ederal
 E d
 st ates
 e y
 ro om
a ul
 tr a
 w atch
 G e
1 3
o on
 c ustom
 lead ers
 How ever
p ite
 J an
 W ashington
C h
l am
r an
ri ed
 se lf
 ro le
 d i
il t
u ation
 l ab
 s ound
ab l
 d am
iv il
 official s
at t
 201 2
 st ri
he ad
 t re
id ay
on se
ib ility
 rele ased
l u
 In st
 be gan
 D av
 A pp
 G u
 S outh
- --
 o pt
ob al
 stud ents
 t reat
 fin al
 charac ter
 pos ition
 mat ter
\xc3 \xa9
end er
 en er
l im
 out side
er y
 d ou
ad es
viron ment
 develop ment
 state ment
 him self
 201 7
 ab ove
l ike
 st at
 in it
 bre ak
 1 00
 am ount
 prov ide
se c
 hour s
 it self
 them selves
 off ice
 rep resent
 a ction
 P art
 bec ame
 19 8
 gener al
 contin ue
 count ries
 In tern
 s us
 ne g
i od
 2 5
ac ed
 g un
as k
 tr ue
 spec ific
um b
re g
ar ter
 l arg
 signific ant
 sim ply
ograp h
 was n
' ll
 R es
 g round
il i
 inter view
ace book
 r ad
o id
og n
 diff icult
 su per
 run ning
 J ust
 ev idence
 ad minist
1 7
B C
 c op
re am
 d rug
 vers ion
og le
 b ar
 ag ree
e ks
idd le
 build ing
 Ch ina
 need s
 prof ess
ang u
 group s
r ight
 ty p
 comm on
 show s
 re d
 every one
 d om
 d est
 need ed
 b all
 wom an
__ _
 G erman
 l at
 bel ow
 t em
l ight
 mus ic
ourn al
 ex c
 rele ase
if t
 in j
 pret ty
 A b
A R
 M ed
 includ e
 sa w
 de ep
1 8
b ody
 a p
 play ed
 qu ite
s er
 indust ry
 ch arg
 m ag
 ener gy
b o
 play ing
 m ot
 5 0
 cand id
ir t
 ph ys
 sens e
 l ate
 al leg
 wh ite
 H is
iv al
 friend s
 g en
 leg al
 resp onse
 A ss
at ur
is c
 an im
y le
 A fter
om m
H ow
rib ut
A S
e g
w here
 ab s
 inst ead
le v
 b illion
 l ost
 es pecially
 val ue
 M us
ress ed
 h ost
os ing
or ing
 h om
ist ic
 p le
t ime
 New s
 W est
ag er
 we eks
ep end
 N ot
cc ording
 for ward
 det er
 e lection
 recent ly
 j ud
iqu e
 tr ack
l t
 su ff
 vot e
 T witter
 ob ject
med i
 per iod
 chang es
 opp ortun
 l o
 Wh ite
 O ct
 E n
 long er
e ed
ar c
o ke
 p ain
 so on
 s ite
  {
h od
 e p
ac hed
 ac cept
 C ong
_ __
ir m
 sh oot
 econom ic
ri pt
 hop e
o e
 mom ent
 dec l
 cons um
 p ie
le ge
 W ill
 t it
 che ck
op h
 pot ential
 bl ock
 M arch
 wr ong
i j
du ct
 Se pt
 Dep artment
 hig her
 c red
d en
 on line
 foc us
 2 4
 cons ider
 ed uc
ke y
anc ial
 M y
id ing
 c irc
 wor ks
 rel ig
 sh are
 p arent
 he ld
c ial
2 5
 p red
 D r
 w alk
 we bs
ul arly
= =
n ers
 The se
 re ve
 l ed
le ar
 st ay
al t
 st ru
 Republic an
 ris k
 word s
 A ug
 re v
 so ld
 re view
 cont ract
 result s
 serv ices
 law s
The y
ove red
 c ode
c il
ic ro
 M ich
 w ind
 fun ction
 a ud
 c e
 Sy ri
a ut
 tot al
f ect
 art icle
 a ge
n s
 app lic
 min utes
 person al
 any one
u ary
i ents
it ution
as ons
 J une
ate g
 prote ct
 pr im
ang er
c he
 targ et
 d en
f er
 ear lier
 fav or
h aps
 de ad
 an sw
 up d
 pop ular
E S
 comp ut
 v ol
u le
p ut
h am
pr il
 ne cess
 h y
 r ate
ag ing
 techn ology
ap an
te e
 res pect
 D o
v al
 en vironment
 201 1
P h
 rece ived
 expect ed
 S m
e ch
end s
ud e
 go al
 b ase
 cre ated
 sur pr
 ant i
 P ar
 J uly
re et
 proble ms
le x
u el
 w ays
 p ort
 resp ons
act ion
 sc ient
 incre ase
 priv ate
r ay
 announ ced
 com ment
 P e
is l
A l
 can not
 eas y
 sh ot
 quest ions
et er
b it
 for ce
 Cong ress
ater ial
 imp act
ip le
 e t
her n
 M ond
pl es
 p ack
  +
 F acebook
 l angu
 G od
 invol ved
om b
av ing
ct or
ill s
6 0
h ood
 Aust ral
on st
ues day
 exec ut
 mod el
o le
it iz
 spe ak
 st aff
 ex act
 c ivil
i res
 ne arly
 ty pe
our t
ok es
 orig inal
 c ases
 cont ent
 19 7
 relations hip
 ter ror
 Go ogle
T o
 Fr iday
 le ave
 cap t
 ins ide
  <
 ph ot
ll ed
 f ans
 A pril
 s en
 co ll
 intern ational
c ast
 he art
 a verage
e es
il ities
re l
 bro ad
 ar rest
  ur
 C ount
 us ers
A t
 c al
 c ell
 wor th
 E m
 so ft
 l iving
 R ed
k y
 n ation
 kill ed
 report s
 201 0
ip s
\xe3 \x81
 bec om
b or
 s ource
 Mond ay
 T uesday
 sub ject
est s
 work ed
at ural
 im medi
E N
 resp ond
 d iv
 gl obal
 ass oci
j oy
 cl ub
 Americ ans
op s
a el
en c
it es
 P al
 ch ance
 o il
 A ct
 ab ility
 t akes
rough t
 P er
he l
 we ap
 pr ice
 J apan
 direct or
olog ical
ress ion
iz ing
 work ers
 ter ms
m on
 de l
 ro ad
 publ ished
 Wh ile
 t ou
 ph one
r ain
 fin ancial
O R
 m id
os ition
 dec ided
is es
 Russ ia
 S ome
 m other
 s qu
 W ed
 l ack
 def in
ove mber
 4 0
 g irl
 st ore
 est abl
 col lect
 g ave
 bu y
 inf lu
 Cal if
 l og
 happen ed
 requ ire
 N ow
in o
 e mer
 f em
" .
es e
 cap ital
cl us
 fore ign
 sc he
 current ly
 O ff
 S an
b ased
 go es
 B y
ov ed
 Ge or
vert ise
 sit uation
 ind ic
 off er
 who se
  @
 t al
 m aterial
 l ives
un t
 aff ect
ro wn
ough t
 pl ans
nes day
 ar ri
 b ur
 mem ber
 p ict
urs day
 F eb
ru ction
 partic ip
 rec ogn
 turn ed
 met hod
 ev ents
 Jan uary
 H ill
 net work
 M e
O ne
ct ions
 team s
 b ank
 S und
 meet ing
4 0
 add ress
 int rodu
 n orm
 sim ple
f ully
f ort
 A g
 Is lam
  ill
 h uge
 Sept ember
 reg ard
 are as
n a
 c y
b l
ord er
 C or
 T V
 cou ple
 appro ach
 care er
a ur
 G l
um e
 Af ric
l oad
tt p
" ,
 de li
ou d
 r ace
 perform ance
 p age
et y
 E l
ap t
 N ovember
 to ol
 Dav id
 f elt
 quick ly
 m is
 num bers
o or
 em ail
 2 1
a ily
 or d
ist an
 h on
 administ ration
 Wed nesday
 vict im
 P aul
 v ia
 impro ve
 eng ine
ch ie
 f re
 p ull
 N e
 r ound
 A ng
 bu ilt
 2 2
 Europe an
 p ers
 d ig
 Th ursday
 f ather
orn ia
 l oss
av y
ruct ure
 th ous
\xc2 \xad
 produ ction
 b oy
l in
s p
 he ard
S h
 econom y
\xe2\x80\x9d .
 en joy
 Aug ust
 tr ade
f ace
d own
 webs ite
im ent
 sec ret
 co ver
 reve al
 w ide
 bo ard
 m atch
 C ourt
A L
 allow ed
 sp ent
 hand s
 tra vel
 l ower
 re pe
 po ll
 includ ed
 st e
ce mber
 Oct ober
us es
 ne igh
 leg isl
or ters
 beh av
ict ion
 te xt
 kn ew
at ory
 rem e
 want s
 to wn
ight s
 Brit ish
 se par
es tern
 vis it
m e
 Canad a
re ct
an ks
W ith
 per fect
 get s
ess ion
z e
 move ment
g round
is hing
age ment
 tri ed
 c ause
? \xe2\x80\x9d
  }
 for ces
g est
ig ence
 Sund ay
 en s
 S ch
A fter
for ce
ce ed
 b i
 att ention
 partic ular
ur d
] [
 ve h
 b ud
 f ear
 pop ulation
 var ious
 U K
 re ach
en ed
 look s
 2 3
 Calif ornia
 b rought
 v o
en ces
 K ore
 l ink
ib ly
E D
) ;
 I S
2 00
 prev ious
 m ention
 Q u
 Russ ian
 mor ning
c le
ide red
' d
 f air
 grow th
 S w
ak er
und red
9 9
se qu
y ond
 fe ll
ra z
 s ong
all ed
i am
 C ont
en ing
m a
A C
 tr aining
u k
h old
 s ize
f ield
 Bl ack
 De cember
ident s
led ge
 cont act
 dem and
 h or
 im age
Wh ile
 r ac
ific ation
 pre p
 h ot
O S
ec ause
 rul es
 l iber
ar ily
 lead er
 se arch
  ess
s et
 St reet
 P ost
 c itiz
 up on
 stru gg
 lat est
c ome
ond on
 ind epend
U S
in ks
u ments
o o
 redu ce
ar th
 feat ures
 co ach
 P ark
i ant
 f ast
T r
 talk ing
 pro gress
 J ew
 add ition
 w ond
 Sen ate
 H er
I T
 P at
 st ar
 spe ed
 ex am
 cons idered
ra q
ic les
ar ies
 re b
om p
g es
ap h
 level s
 T imes
 Count y
 sl ow
 investig ation
w o
t r
b ed
 con duct
2 2
 Part y
 K ing
 med ical
 m ach
et h
im ately
v ent
 a chie
 langu age
atur day
 c ard
il le
 s n
op e
 s ort
 crit ic
 T ex
 Cent er
un k
 con c
 u nd
 p aper
 p en
ys is
 Ind ia
h a
I C
 200 8
 parent s
 sex ual
 system s
u it
as c
im in
 do ll
 writ ten
u f
 b ox
 sp okes
ig r
 see k
 doc ument
he t
e ared
id ge
 incre asing
 he ar
an i
at form
 se ven
 d raw
 s on
 Mus lim
 eff ort
ru ary
r d
 job s
 I ran
sy ch
 cons erv
 ext reme
 prev ent
 lear n
in ing
 ser ious
 reg ul
r ast
 r ange
ro om
 viol ence
 e ight
  ...
er ve
 M ark
8 0
 I raq
O P
 in n
 sur ve
 complete ly
 200 9
it ch
 mess age
ic o
at ives
  \xe2
S he
 ob v
 interest ing
reed om
 sc reen
ab or
 opportun ity
 K e
e ff
2 4
 res ource
 cl imate
 major ity
an ced
 partic ularly
 dou b
 j ournal
m p
 des pite
 R om
 claim s
 answ er
 Ch ar
 soc iety
 L ondon
 def ense
 car ry
ent ially
am ing
 gu y
ens ion
 ext ra
 Don ald
is ions
 attack s
 requ ired
ren ch
ill ed
 big gest
vertise ment
 E ast
 exact ly
 p aid
 M ore
ib r
i ers
 exper ien
 are n
ly ing
is i
uc lear
ines e
 mod ern
 rem ain
 qu arter
. ..
ar i
 offic ers
 h undred
 ex cept
et t
ut ions
 t able
 pract ice
in ally
 c ross
 n atural
 m iddle
 2 7
our ces
 certain ly
n ces
er c
 d ro
 S aturday
 st ories
id a
 N et
 hist or
 g as
 product s
 sur v
 T ur
 look ed
 somet imes
 st uff
 r out
 sc ience
y l
 fin ally
 us er
os es
A M
 sum mer
 mov ie
 bl ood
osp ital
 commun ic
av es
 a w
 l ay
 chang ed
p ir
 on es
 lead ing
 ter m
 describ ed
 S and
 im ag
 Feb ruary
f l
 pr ison
 con vers
 det ails
ic ks
n y
 start ing
 S pe
 qu ality
 occ ur
h ib
 p an
 show ed
ous ly
 n amed
 g iving
ere st
 rem ains
 Mc C
u ing
 u lt
 reg ion
 prov ided
 cost s
pp er
ak ers
 S oc
ar r
 dam age
 m ob
 d anger
 f it
 T H
 ch ief
augh t
 po or
 p ath
 M or
 educ ation
 inte ll
 contin ued
N o
 grow ing
en ge
 dem onst
  *
 C he
 part s
 2 6
 writ ing
 com ments
 2 8
 m ent
 main tain
 saf e
 ass ist
 think ing
 mult iple
in ary
 Republic ans
 E ven
 pur p
 requ est
 wr ite
 f ix
 it em
 pur ch
 D es
 d ied
 Democrat ic
F L
 C oun
ar a
ab les
ag o
 read y
2 3
 M on
co in
 would n
 imp lement
 incre ased
 cult ure
 eff orts
l ish
u x
 vot ers
op er
 c amer
 m ill
al y
 read ing
mit ted
im inal
 us ually
 call s
 sp ot
 f ile
 effect s
I m
 G ener
z z
 I nt
 per haps
b an
 al one
il es
 F irst
 al though
 to wards
 Le ague
ar ian
 cons ist
 B ill
 Tex as
 se lect
 gu ys
 stand ard
 Mich ael
 ce le
 sub st
 be yond
 direct ly
it ute
 pl atform
 Ch inese
 ( @
 h ous
us ing
 spe ech
 S er
 real ity
p re
 k ids
 J ames
 av oid
 through out
 foot ball
 stud ent
 t ur
 could n
B I
f ord
 immedi ately
R e
 includ es
 ro b
 c at
 con cept
 cent er
 cho ice
 sc ene
 comple x
 add itional
an ch
 chall eng
 w ife
 cl os
 rec omm
 rese arc
 t ro
 C ons
ou l
 ep is
he st
it or
ic ated
 Min ister
A ll
 cor por
 \xe2\x80 \xa6
 design ed
ag on
 reme mber
 saf ety
 soft ware
 Ind ian
w ise
 g one
  il
ast ic
port s
 c ast
 se ll
 to ward
 ag ency
 t en
 offic er
ac hes
 fig ure
 pie ce
 br ain
 bat tle
 J ack
b ur
air s
 deb ate
st on
 thous ands
ad em
 s we
ru pt
ing in
 a head
 coun ter
 op in
 s le
ic ient
N ow
im um
 rel ative
 let ter
ir th
 B o
 rece ive
 press ure
  \xd0
 bl og
il ies
  ver
amp ions
  >
 s il
 mov ed
 la unch
 appear s
 o ption
 Pl ay
 pass ed
  ut
 pre c
 st age
 6 0
ro y
o es
m en
 cle an
ol ute
 I I
ate ver
O T
2 7
 proper ty
 help ed
s is
ber g
 dri ve
 App le
 alleg ed
j ust
 G reen
 tw e
 dis app
n ew
 n om
 t our
 mean ing
 ro ck
 do g
  x
it ation
 cr is
 Ass oci
 sus pect
 d ate
 R ich
 mov ing
 sc ore
 Democrat s
augh ter
 organ ization
 s at
 cond itions
 tou ch
 d ark
 comm and
 The n
  ign
? "
 re asons
 bud get
 c row
 p ark
m ore
 n uclear
 my self
 de g
 happ y
 dev ice
 differe nce
ri ef
 S im
 may be
 begin ning
A D
 cop y
 n ature
 fail ed
 f an
w ood
 charac ters
 comput er
 S erv
 enc our
y an
 a im
 M art
 tit le
 w all
 comp ared
 le ague
ock ed
iv ity
r s
 est im
ad d
 V al
 col lege
te xt
 St ar
 sh own
 cent ury
 Eng lish
 power ful
 ey es
 D ay
le ase
 Su per
 b al
 lim ited
 y es
 b and
 cont ribut
 pos itive
 for ced
 necess ary
 candid ate
 st ra
 dis p
3 5
ci ent
 book s
2 6
 tr ust
 ref er
A P
 F rench
 larg est
 ar ch
ent y
 s al
 H ere
a ud
 conf erence
 R ober
 not e
 anal ysis
uf act
4 5
 sp ending
 president ial
ain t
 O f
 citiz ens
or ks
 school s
ig ration
 Syri a
 th row
ven ue
 a ware
 me ant
 execut ive
 event ually
du le
M y
 phys ical
 follow ed
 B en
ur t
 fe ature
 f irm
 treat ment
 T or
er o
 W ind
 m ix
 conf ir
 b ott
a res
or ney
 2 9
 gr ad
 D is
 relig ious
 eas ily
b and
 aut om
 es c
 p us
 co ol
 19 6
et ro
 fam ilies
 il leg
bo ard
r ated
 act ions
 over all
 M ex
 allow s
ir ing
 g ives
c raft
 fe ed
 A ir
 \xc2 \xa3
ub e
) :
 your self
B y
I s
 d raft
b um
k en
r am
 app eared
 sm art
 det ail
 inc ome
 anal y
 sign ed
 an g
 H am
 cent ral
 ide as
 Go vern
 sen ior
Ad vertisement
 fre qu
N ew
 weap ons
I D
 dis play
 h ar
 prom ot
 n ice
U n
in n
 cred it
 dec ades
 polit ics
 p sych
 B el
 B re
D on
enc ies
 cr ime
E C
O M
 us es
 do or
2 8
 dis e
ut y
 Intern ational
 un ique
B e
 al tern
 l if
A ccording
 d rop
 s ales
m ar
E T
** *
res h
 develop ed
 custom ers
ch an
 benef its
 conf lic
ur ance
 rel ated
 cris is
 m ist
 S chool
i able
2 9
 not ed
 C ap
 Austral ia
 E U
b ox
 tr uth
p art
 J er
 go als
in y
 individual s
 ch arge
 E arth
 be aut
 contin ues
on ents
 Un ion
 Ar ab
qu e
 r ap
 chall enge
 st o
n own
 app arent
 Ang el
ite ly
 Sm ith
 l ic
 project s
 pe ace
 meas ure
 Pol ice
 cor rect
d om
ot i
 intell igence
 Christ ian
 prev iously
 German y
 full y
 r ule
 man ager
 bro ther
 r ates
 adv ant
ch ange
 exp and
 cle arly
 re form
 l ines
 ch ur
 success ful
ri age
 high ly
 larg er
ound s
 tr aff
 sp read
i ance
 seem ed
 Coun cil
 stra ight
S ome
 Com p
2 1
 cr iminal
 min or
 em b
 Geor ge
 program s
n et
ic ed
 Fr anc
ow ers
 inc ident
 resource s
k i
at tle
 T om
 great er
 prim ary
 stre ng
I A
ant ly
 know ledge
e an
 stud ies
wh ile
 sa ve
or ter
in ated
 we b
ate gy
 ke pt
 att ract
 Fl or
 sp ir
ur ch
 em ot
ol ic
 col or
 fe et
se y
 r are
 re ached
 B er
 ar m
sec ut
 H igh
lev ision
 Intern et
 Bro wn
 C r
od ay
os h
ic a
 favor ite
id ers
 pl aces
 A nt
ot a
 reg ular
ve re
w ide
b on
1 00
 man ufact
 la un
 D ef
 R ec
 s end
 pre m
lic k
ic it
 know s
 shoot ing
 activ ity
 p un
 s ources
 norm al
ro ll
ic ago
A r
ul ated
ing ly
ter m
 stat us
 fight ing
 vo ice
 r ise
oc ks
 own ers
 f ine
 ca used
 M ac
 claim ed
 en em
 lit er
 R ob
on ent
 Gener al
a ith
v ille
E O
 opt ions
 200 7
eng th
us ion
 U p
 sp end
 S un
 G old
ad o
 c ities
m iss
 organ iz
 end ed
or g
 researc hers
il ed
 call ing
 sche dule
 ref lect
 L a
m ission
\xe2\x80\x9d ,
ol es
7 0
P ro
y a
ro id
 pr ices
ww w
 al bum
m ark
 F rom
ect ed
if ying
 employ ees
 fem ale
 Eng land
IN G
 v irt
 crow d
 ha ven
 e le
 ra ised
mit tee
3 3
 j ump
u ana
 supp osed
it ness
 happ ens
 add ing
S c
 polic ies
 n ames
 charg es
 tr ou
rib ution
 bas ic
N ot
iver se
 M ag
 concer ns
 trad itional
um an
 wa it
 pl ant
ing er
 abs olute
 ac qu
s pect
 h ospital
ro l
 fund ing
 B ay
 pr int
 sl ight
 com mer
 pat ients
 author ities
 min ister
 creat ing
 h ttp
 f reedom
 A P
 M o
 me chan
se e
 sc en
 E very
 st yle
 see ing
 gr and
. \xe2\x80\x99
 be at
 l ik
on a
d d
 st ation
 Sc ott
 p ush
ri an
ij uana
 behav ior
 le aving
 c ry
 im pl
 b irth
  ir
 act ual
 sh ut
erest ed
E L
 ens ure
 off ered
p en
 agree ment
 Flor ida
 e th
 m er
so ft
 post ed
 Re g
 Hill ary
 go ld
 week end
 g reen
 M ost
 ob ser
 we ight
O U
al se
. '
ac ing
 deter min
 v ac
H ere
 reveal ed
 applic ation
 We ll
 most ly
 val ues
 prop os
it ude
 A lex
ab y
 will ing
 r ank
ear ch
 ad op
 A ccording
 ad ult
tt ps
 ey e
ect ive
 record s
m ine
am b
\xe2\x80 \xa2
5 00
 en force
 pict ure
 belie ved
u ild
 L et
 b rief
 lear ned
 L aw
 inst all
S A
 str ategy
 app l
 cho ose
ist ry
 d ire
 wond er
 qu al
 mass ive
g en
 dev ices
 benef it
 w ild
 part ies
 Ch icago
 law y
 Pe ople
 c ars
 Tr ans
 P ort
c ont
 Ph il
 arrest ed
 wh atever
 w at
 O h
 Fr ance
 stre et
  ;
 prov ides
 wh om
9 0
 ass ault
 un s
c her
li ament
 ask ing
 influ ence
t ies
 jud ge
 l ose
 f at
 feel ing
 oper ations
 produ ced
 tem per
st e
 crit ical
 L ou
 Sec ret
 neg oti
 m ission
p oint
 B ush
 ent er
E x
 im ages
\xd0 \xbe
 St ud
 confir med
 show ing
v is
I L
p ri
 m ount
 dist rict
 sus p
 run s
ri ption
 pat tern
 M at
 t end
 b order
 res idents
or ial
 deb t
How ever
  \xc3
ak ed
 te ac
 c ru
 Com mittee
C l
 opp osition
 cele br
 W all
 He alth
 se ction
 def end
est ic
 produ ce
ic ial
 Comm ission
 dr ink
 independ ent
 M od
 Wh y
 br and
ent ed
r ont
ce ll
ag s
u gg
 c ore
 et c
 t ick
 dig ital
 B it
 he ro
 adv oc
 P ress
 doll ars
ign ed
oc r
 S am
ri al
 effect ive
a e
 sol ution
 v ill
 int erested
 M al
 Kore a
B A
 hig hest
ir g
il it
 mem ory
 open ing
 wor se
ord s
 lear ning
 respons ible
v est
 tri al
 d aily
 k ick
 the ory
 O ther
 off ers
 Pal est
 repl ace
 G et
 Off ice
 ag reed
 te levision
 rest rict
 Franc is
 B ecause
 occ as
S T
ci ence
C C
ill ing
 v s
 M icro
 tr ain
 invest ment
n o
 typ es
i ation
 W estern
ak s
ic ians
 ch air
 mil es
 mill ions
g ency
 che m
 Just ice
 gener ally
 bas is
 prop osed
The se
 8 0
 M ike
 C up
 O ur
 he avy
i pe
A A
 expl ained
 D el
 m ur
 m ap
r ad
ur ies
o ly
 d er
 part ners
and er
 opin ion
 def e
 on to
r ate
 prot est
G et
r ig
 associ ated
 l oad
o om
az ing
4 4
 N FL
w in
C on
 F ound
 m ale
 becom es
re y
 re ject
 g ra
out hern
 Sec urity
 co al
 ob tain
 dest roy
 advant age
 ass um
 un f
 L iber
 cond ition
 announ ce
 hundred s
 achie ve
 open ed
 understand ing
el ine
 John son
od es
ul ate
com ing
ic ip
 sur round
ad ing
ort hern
u pp
 init ial
3 6
ber t
 B ig
 A tt
 sle ep
we ll
 sh ip
 mar riage
 man agement
 Wind ows
 th us
 lim it
 b orn
3 2
 becom ing
k nown
 ph oto
 eas ier
F C
 G reat
 r at
 T er
 legisl ation
 contro vers
 un like
 elect ric
 M any
 camer a
 M ad
wit ch
 acc used
 bl ue
 s pl
 neigh bor
 dou ble
  ice
 spec ies
 sh ared
l ant
 jo in
 3 1
te red
 illeg al
 L ab
 200 6
M r
 mach ine
 h arm
 ser ved
G B
 extreme ly
 act ive
ol f
 stri k
 3 5
 ser ve
i h
 doc uments
 fr ame
rib ute
 Islam ic
 g e
z a
 D ist
 aud ience
B S
 loc ation
 A M
 scient ists
 bott om
or row
 victim s
 Ar t
le vel
 we alth
 profess ional
 res ist
 belie f
 n ine
 sol id
 win ning
 mar ijuana
 U k
ear s
 neg ative
7 5
if ul
 commun ities
 return ed
m et
 inc red
 P M
 Inst itute
i os
 chur c
P S
 churc h
 dep artment
 Sand ers
 r an
 vict ory
 purp ose
 9 0
 Comm un
 am b
land s
 veh icle
 intern et
 leaders hip
ist ics
 H all
 b omb
 mob ile
3 8
gh an
i pped
 inst ance
 separ ate
 exist ing
 not ice
 he aring
 d ie
 expl ain
 doub t
 f aith
 te ach
 Y our
at ically
 epis ode
 b ed
 watch ing
 com fort
 Canad ian
 F in
 B ank
 not es
ish ment
 S l
 un c
irg in
 f resh
 rad io
h ouse
 E v
 view s
 put ting
as y
 In c
 supp orters
 conserv ative
 p urs
 arg ument
om as
ac ity
 laun ched
w orks
sc rib
O L
v ention
 app eal
ili ar
 item s
ar io
E M
 commit tee
res p
wh ich
ad a
 defin itely
 danger ous
ill er
 m icro
 co verage
 dire ction
3 4
go ing
 charg ed
P A
 fl oor
 O ver
 s un
 m ax
 Car ol
 Ch urch
 F ox
 iss ued
 back ground
 drug s
Im age
i pp
 t ask
 compet ition
ograph y
 tre nd
 st ated
and om
z en
 traff ic
 F BI
 commer cial
 D irect
it t
 set t
 sp oke
in ct
 trans fer
 suggest ed
ct ors
 st ructure
ad y
 sit es
 h us
 n orth
 S ince
 L ike
ampions hip
 rest aur
 lab or
 dec ade
 G ame
 B ur
 repe ated
 re act
 c ards
 anim als
om an
N A
 no vel
s pe
g ers
B l
b ing
b ut
 d aughter
ant ed
 dri ving
 cl osed
 wor st
 entire ly
 cont ain
 d ed
ic i
 Brit ain
 W il
 dri ver
 dise ase
e y
il ing
 tell ing
 small er
 n or
 disc overed
ak istan
e qu
 L os
A meric
 h ack
! \xe2\x80\x9d
 f alse
 c ash
he m
 concer ned
ul f
 pl ays
 sur face
 Q ue
ud d
s erv
 support ed
f erence
ann el
 tool s
oy al
 comp ar
 trans port
 Ch ris
 exper iment
 find ing
n ight
se mb
 c ateg
\xe3 \x82
a it
 as pect
# #
 business es
 7 0
 U N
 far m
 ple ase
 old er
az on
4 8
ph one
h ow
 activ ities
 requ ires
C H
 g ay
 J ones
ibr ary
 streng th
 we l
3 7
and on
 ins urance
5 5
 con sequ
 large ly
 mur der
N N
 ex erc
 c aught
 candid ates
k ins
 Israel i
 allow ing
ic y
 A re
 ann ual
 K en
 test ing
 S up
 str ateg
oss ible
 ra ise
o very
 st ock
 A c
ar ant
 Rober t
 dec isions
S P
 acc ur
r ick
 con text
 f uel
l or
 Uk rain
i us
os ure
 concer n
 aff ord
 belie ves
 pres ence
 pred ict
 tr uly
* **
iz es
 const ruction
 T y
 M iss
 just ice
 M er
igr ants
 gener ation
 high light
r im
 T re
 un it
 Jew ish
ang ing
! !
\xd0 \xb0
\xd0 \xb5
ter y
 Afric a
 gu ess
an cy
 w itness
it able
 hold ing
cept ion
 G ree
 S il
 l ength
 plan ning
av a
 Afric an
 se qu
ck now
 ref uge
 pl aced
 c atch
 Af ghan
 s an
b re
 Associ ation
n el
 tell s
\xe2\x80 \x98
 sc ale
 spokes man
 t im
 r ough
 att end
 Ad d
oll y
 cell s
 jo ined
L e
 mention ed
 interest s
 ab use
 J im
M ore
 has n
 P C
 P re
 init i
 k id
 enforce ment
 su d
 G OP
 introdu ced
 conflic t
 V er
ul a
 deli ver
 Micro soft
 ph il
 upd ate
in ter
 miss ing
 prov iding
3 9
 wa iting
 can cer
l a
 recomm end
ocr acy
 establ ished
 P ri
b our
 e at
 Y es
 occ up
 Fr ank
 J eff
 Angel es
 rem oved
 200 5
4 7
 off ensive
 F ore
 Inst ead
ic on
v ant
 inj ury
 sp orts
 f ant
 discuss ion
 oper ation
 down load
ron ic
 ass ess
 use ful
 news p
 convers ation
 hom es
 s outh
 c ook
 C EO
 G roup
it z
form ation
 ban ks
ont o
 sto pped
 obv ious
ic ations
 meas ures
 K h
 mod els
 four th
O ur
 M P
D A
se ason
 Con st
wh at
 b ul
 201 8
and a
 fil es
 girl s
 st ick
 Lou is
az ine
um n
c ks
 man aged
app ed
ot ed
om s
 fig ures
 T im
 Le g
it er
 ha ir
k a
 ident ified
 gr aph
0 00
is ation
 J ud
4 9
 S al
 fin ished
P l
 fund s
m ail
re al
 P akistan
 set ting
 conc lud
 pre fer
 commit ted
 Mex ico
g l
 sk ills
 spir it
 appro pri
 R ock
 ve ter
 foc used
 arri ved
 TH E
 hous ing
 keep ing
 there fore
ig an
 a cknow
 part ner
 ex clus
 And roid
up s
D es
k in
ens es
el ess
 ear th
 trans l
pl ace
 t ough
out s
 Japan ese
 2 000
 relative ly
\xc3 \xa1
 Sup reme
ow l
w ing
 ident ity
 feel s
R A
 M et
 other wise
 surve y
 R yan
oc al
ic ation
itution al
 prote ction
 ex change
 own er
 V irgin
is f
 tri p
Tr ump
 step s
 hus band
 twe et
ag n
 Ar my
 slight ly
 connect ion
 Pro f
e ah
ere nces
 S ur
 we ak
 Govern ment
ver se
" :
 circ um
 ele ments
 cl ick
 Rich ard
 phot os
 me re
 def ensive
 In ter
 stri ke
 f le
 g ain
 dep end
 col lection
uck y
g ar
ony m
 kill ing
igh ter
G o
h i
hen s
 ro ll
 cor ner
u ct
anc ing
 suggest s
w ith
pro f
 ag gress
4 6
Ph oto
od ies
 gu ard
 g ender
m akers
 Col lege
 comm ission
 Al though
r ange
 d at
 I r
 D ec
 ment al
ic ide
 am azing
re es
\xe2\x80\x94 \xe2\x80
 S ub
 Te am
 plan et
 O ut
 qu e
ren cy
 big ger
 fail ure
y m
 J ose
 supp ly
 N or
il s
an ia
 start s
 s ides
 fam iliar
 rem ind
 su st
d o
 spe ct
an o
 spe aking
Wh y
m as
 tal ks
\x94 \xe2\x80\x94
 happen ing
 organiz ations
 pri or
 h ate
 wind ow
 ar my
 G ood
 J oe
 n one
u ke
 P et
 tax es
 plan ned
 Mart in
 than ks
gy pt
 st ruct
 M ary
 p it
 dec ide
 sud den
 w ish
u ate
 cre w
 car ried
 p et
ost on
a wn
T C
ag ues
yn am
 reg ist
 mult i
id ering
 help ing
l ig
 cal c
L ast
 a ward
 3 2
 stand ards
 F ire
 rev olution
] .
 environment al
 We b
ars h
p m
ol a
 Th omas
 second s
ol it
g n
 Res earch
r un
 exp ress
 scient ific
se s
 imm igration
 stand ing
 The ir
 B ern
 4 5
 pr ior
oc ol
st ream
 be er
 dom estic
im al
ad ium
 p air
ut ers
 Al so
 Secret ary
 ac adem
 U s
 co ld
 var iety
a ven
 sc ript
 M il
H L
 dro pped
 ter rit
 account s
! "
 At lant
 pro spect
 fil ed
er ous
ack s
 mark ets
 s ch
ill a
 bal ance
 imp ossible
 inter act
 neighbor hood
 deg ree
 turn s
R ead
 poss ibly
 app re
 oper ating
 pr inc
 altern ative
 un ion
 vot es
 v ul
 profess or
 M ont
 t ack
 increasing ly
 Serv ice
ay er
ad er
ru it
ste in
 app ly
it ect
 fell ow
 cut s
om en
 hon est
 Pr ime
 un ivers
 ser ver
 develop ers
is er
ar ks
 Syri an
 apparent ly
 l ived
are n
 chang ing
 wor ry
rast ructure
 Carol ina
 test s
ore s
o ch
 un its
 r ich
 T wo
ul ations
F rom
ad ed
 hum ans
I M
ect ion
 Found ation
 M os
 ag encies
 sound s
as hed
 tw ice
 ult imately
ob by
 l osing
 author ity
 sold iers
\xe3 \x83
 anim al
 phil os
 M a
 Im ages
 set tle
 m ut
 at h
 col le
 corpor ate
 absolute ly
 health y
 pay ing
 equ ip
g u
 develop ing
 T ime
 se a
i ams
 clos er
 D en
 inn ov
c ious
rel ated
 seek ing
 regard ing
c oh
 sk in
 exp ensive
ans ion
 poss ibility
6 5
 beaut iful
 relig ion
 ap art
 Cent ral
 fund ament
 exper ts
 sol ar
 y ards
 v ast
 writ er
 fl ight
 Dist rict
ict ed
 T ra
 L ast
 de ploy
 ad just
O f
 intern al
 t ast
 L at
 P eter
ap ers
3 1
 imag ine
 J on
I V
 applic ations
olog ies
 v ision
l ook
st ate
 Francis co
i ot
 Tor onto
 sit ting
 Pl an
 tr ail
os en
 un less
 US A
 J es
ist ed
 he at
 200 4
I P
E ven
 respons ibility
 cap acity
at ures
 M iddle
ain e
 er ror
 sy mb
 f ol
 ar ms
 g ar
 p il
p ire
 c overed
idd en
i as
 app oint
 fam ous
pr int
 C amp
 for ms
N D
 un iversity
 gu arant
 t ight
 present ed
ort ion
ov ing
en ced
 S T
u zz
 cl im
 ear n
 P ut
 conv ention
J ust
 P ublic
 surpr ise
 att orney
 elect ions
 estim ated
 f if
 E gypt
 M ur
 A ri
ro s
 te en
 pers p
 inst it
 veh icles
 Am azon
rib le
 int ended
ro ad
 r id
 o dd
ortun ately
 help s
al a
 occur red
 hy p
 stre ets
 inte gr
h and
 B oston
 = >
ress ive
ust er
rou d
 S ol
= "
 sp ort
 deter mine
 Bit coin
 exper t
all s
 cons ult
ur ation
L et
 bro ken
 f ired
le ts
 t on
 fl ow
 dom in
por ary
L E
ed er
 sh all
 tro ops
 Th ose
U p
I ON
p erson
 n ar
ter day
 pie ces
 Ch ief
 prep ared
 M ass
 C ath
 rap id
 J o
or age
 loc ated
 Soc ial
 b aby
 con clus
 bring ing
f e
anc he
 pro ve
 specific ally
 An y
 pot entially
 se ctor
 r andom
 j ail
O W
 se lling
 govern ments
 O nce
 F e
 equ al
A b
cl ass
 f aster
 he av
 bo ost
use um
ve y
 st ars
 propos al
 fact ors
 cl in
ce l
 G al
 pl enty
T H
 equip ment
our s
ri p
D o
 coun cil
 er a
 inf rastructure
ph as
 J ournal
 R ub
end ment
 Virgin ia
h t
 b reat
 pro secut
 vot ed
 off ering
 car bon
in ent
 exp ressed
 comb at
 vul ner
 bro ke
ul es
( )
 cl ot
ure au
 F ederal
 rul ing
 ret ail
 Gu ard
 ref used
 dr am
 C ur
 elect ed
 R o
 R iver
an ish
 represent ative
 sec ure
 se asons
ce an
 O pen
 conduct ed
, '
 Par is
w ar
 challeng es
 rem ove
 S ant
is her
ro g
 method s
 weap on
n oon
 point ed
 Is land
 rem ained
 Austral ian
 pr ime
 tr ig
 pos itions
 d in
 M el
 critic ism
i pping
ock ing
 Med ic
F irst
 C ru
 P lease
at o
 m aster
on om
I G
 s ale
ol ved
 cult ural
 were n
 significant ly
 b row
 orig inally
E very
ri e
et ic
 D uring
 affect ed
 appear ance
 c as
c ol
 t ourn
 fac ing
 great est
 fin ish
th at
 Le e
 st ret
9 5
 you th
 Wh o
 percent age
 Ph oto
6 4
 te le
 determin ed
 sign s
 invol ve
\xd0 \xb8
 than k
S te
 b ought
 5 00
t op
ly n
 chem ical
ash ion
 sh ape
 S ing
 reg ime
EN T
 g rew
S p
p ired
 rem aining
 Ste ve
s en
ly mp
 min imum
 S aud
 ind eed
re ens
 d ream
S ince
al ing
 B oth
 m arg
> >
 mod e
 her self
 vot ing
N e
 Col or
ri er
h y
 obv iously
 For ce
 reduce d
 N ov
 w ood
 R em
 record ed
 arg ued
 199 0
 re venue
ord in
 t act
 we aring
igh ters
 lead s
ed ia
 h un
 polit icians
 pl us
 cont rast
 s witch
 th r
 purch ase
 hand le
 U nder
g a
 con cent
 pro ced
\xd1 \x82
 ag ent
m m
h ab
 appre ci
 Will iams
 experien ced
 h urt
 exc ited
 vide os
 h ttps
coh ol
 support ing
D P
 H aw
ow nt
 v ir
 F ree
 surpr ising
 min ute
ll er
 expl os
 P ac
 bel ong
 consum ers
 ident ify
 cons idering
0 1
 air craft
C L
 a id
 re nt
 Cons erv
 pull ed
ap ter
 bas ically
 differe nces
g ment
og ue
 B ook
 gl ass
h ttp
 R ad
 after noon
 sh ift
 dep art
n on
 end s
ess ions
k et
 tur ning
 b ound
 fil ms
 sp ring
 Char l
ru ption
ar p
 m ort
l ife
 tre ated
 acc ident
, [
 P ower
 mot iv
 list en
 se at
 comb ined
 ser iously
 priv acy
app ing
0 5
res ses
 even ing
he red
 opportun ities
as p
 strugg le
 19 5
 pan el
 enem y
 lot s
 comple ted
 vis ual
 D aily
H is
 const ruct
Ph one
 talk ed
 c art
 hop es
am m
os ite
 pass ing
  id
 app s
ut s
or al
P e
g ent
P D
 stand s
 Ste p
l o
p et
 wide ly
An other
ens ions
 emer gency
ob e
 H ol
 su it
 Sh ow
 e lement
ang ed
S S
al ed
 p owers
 sub s
 B BC
uc ks
 fl at
 O lymp
T V
 b urn
 disc l
 pl ants
 Sp ace
 liber al
 opp osed
 s ad
 I N
ra ud
om pl
P R
W ell
 pro ceed
 copy right
ok ing
 adv ance
 fact or
 200 3
 dist ance
ive red
 Pro ject
C ont
 dis miss
y r
pl om
 attempt s
 t un
A m
 M att
 R oad
it a
ab ilities
 h ol
 trou ble
 coll abor
 R el
 def ault
id el
un ction
 B et
 z one
 Jack son
 up gr
 re action
 st orm
 rep orters
 M em
 fr ust
ra wn
m osp
 writ es
ad ow
m ond
ain ts
 st ress
 typ ically
U T
 T oday
ne ll
st s
resp ond
 p ages
 inst ruct
l ines
in ian
 ref erence
tern al
 gr ab
ed s
 pack age
 b odies
f ree
 mat ters
er ved
 den ied
A pp
 qu ant
 disapp oint
 se m
 expl o
c are
4 2
 N AS
 opt im
 dis s
ac he
 qu iet
 ent ertain
 respond ed
 appro ved
 Tur key
 sat isf
ap ed
 broad cast
es ters
 instit utions
 ad vert
 set s
 Direct or
est ival
 el imin
raz y
 a st
\xc3 \xa4
S e
 val id
 re new
 Oh io
R ep
h ost
 spl it
 se vere
ell y
 Will iam
 s ac
 P enn
 cap able
D e
  //
 p itch
 200 1
 capt ion
ani el
 l oved
 techn ical
 g iant
p ass
er ry
t ion
is ters
 trad ition
 b ull
 prom pt
ab in
 conf ident
u ous
r um
 conf idence
 num erous
 reported ly
 fac es
] ,
w rit
 we ather
 f ly
r id
r ant
 trans ition
 3 6
4 3
 Afghan istan
 Sy stem
 S qu
 cre ation
 persp ective
z er
 un able
 for get
 Lab our
 Y et
as tern
un te
I I
em ploy
ang ers
ok en
 co oper
 c raft
 subst ant
 viol ent
 suff ered
 co ast
 m and
amp ion
8 8
 pict ures
 experien ces
 appro x
 rout e
ab led
 fl ag
 adv ice
 And rew
 decl ared
us iness
 Med ia
 ord ered
 H uman
raz il
 cr imes
 co ff
 p roud
se x
is hes
 report ing
 mess ages
 circum st
 find ings
 ev al
 IS I
 L in
 decl ined
 ex cell
O ver
 expl ains
 W al
 del ay
  \\
 F ollow
R es
 newsp aper
 connect ed
il ty
 should n
 m al
ev in
ov es
 on going
 cl oud
7 7
ound ed
c an
 mov ies
 pick ed
res ents
 ad mitted
 del ivered
D uring
 gun s
 M L
ion ally
 Sc ot
 walk ing
 ag ents
c alled
 pr in
 edit or
 though ts
I nd
 mar ried
 em ails
 appropri ate
 a uth
ed d
 em phas
 R od
u ations
 ed ge
 Gr and
O D
 le aves
 upd ates
 acc ompl
 g ather
rd ware
 for g
 Muslim s
ans as
 W ood
 quarter back
o oth
 s ession
ar l
 po ol
 S cience
 inj ured
c os
 public ly
 arch itect
ell ow
ar n
 state ments
 S ov
 per man
 leg it
 conf irm
M A
ner gy
 Te chn
 L ake
 our selves
 S pr
O ther
 real ize
 dri vers
 A v
 ro t
m ates
 D ou
, \xe2\x80\x99
T A
 ar med
ess or
 d ial
c ons
T e
 lawy er
 r ail
our ney
 read ers
re land
 cont ains
 arg ue
 Re v
 tal ent
 f illed
 S um
 alleg ations
 activ ists
 Christ mas
 d ynam
 G ra
 198 0
 Mich igan
d ate
 B ack
 R on
 cr ack
 trans form
T ube
 Re ad
 build ings
 I ll
 we ar
M any
l ong
4 1
 s am
 terror ist
 t ree
end a
 exerc ise
 lab el
 effect ively
O h
 pract ices
 g od
T S
 3 3
ul s
 sub sequ
 S her
d ef
 fl o
 f ish
 sh op
ent ure
 exam ples
 H y
 pat ient
 Se attle
 Se e
 object s
 te ch
i est
 secret ary
 G en
ribut ed
6 6
as ure
 r ain
 miss ed
 ca uses
g ia
 deb ut
ill y
 ess entially
 mor al
ord ers
== =
ty pe
 W ork
ar ters
 Ukrain e
 cent re
F ollow
 Bl ue
ad or
 V ict
am in
ac ter
 I D
 inj uries
ic ing
 St an
 Ph ot
 mot or
 i Phone
 art ist
 cl ient
 b ond
 th inks
e gr
i at
az a
 p ure
ou ston
 he ll
 Saud i
 fact s
\x82 \xac
Al though
ag ers
 s ke
 des ire
 link ed
or ry
\xc3 \xad
 govern or
 material s
 perform ed
 fr anch
or se
es ome
 su c
n an
 philos oph
 init ially
 S ign
 necess arily
 K im
ER S
 B at
S pe
 exp ansion
 schedule d
w ater
 war ned
 di plom
 adv anced
 expl an
  ing
 var i
 every body
 j oint
 dec re
 res olution
 incre ases
en ger
 accept ed
Y es
 for t
 my ster
 v an
 fac ed
u nder
 b are
ill ance
 announce ment
 follow s
 n ations
 p ra
 play off
 L ife
 ab andon
 Sec ond
 rad ical
 ath let
 inc or
 ne ither
 yes terday
 M ount
u y
 near by
 dat ab
 dist ribution
 appl ied
r ich
 mag azine
ir ty
Q u
M ost
 m ir
ath an
 consequ ences
 do ctor
 list ed
 Col umb
 at mosp
 I d
 surpr ised
Americ an
 off ense
it ors
 C NN
 R E
 sp ons
 beg ins
ot ic
 We ek
 a f
 threat s
 rep resents
 Jew s
 G M
 A ff
er g
 en h
 mov es
 rem ark
 T O
 re in
 song s
k ay
 ch art
w ord
 behav i
 r ide
 D an
 add s
 with d
semb ly
C an
\xc3 \x82
 impro ved
 p hen
 b ot
 war m
l aw
 al cohol
 out put
 fl ood
 De velop
 A T
w hel
 J ul
 sh ots
 H en
 f ill
ed y
8 5
v in
 V ol
p o
et te
 st ood
 al t
 br ings
 pus hed
 gu ilty
 Rom ney
 sub scrib
 ent ry
ocrat ic
 B razil
 dem ocracy
 boy s
bur g
 ro w
 conf ig
 sc r
 restaur ant
 N BA
 laws uit
 I reland
ac le
 manufact ure
 rece iving
 Bar ack
The n
 tot ally
 On ly
 discuss ed
 s ought
 r ising
 ent ered
 t rib
 ISI S
 Bo ard
 3 00
 consist ent
 histor ical
ur ning
t witter
= ==
v a
ide o
 st orage
 cor respond
 plan e
ol ve
 comb ination
 sc ored
 in put
 symb ol
 br ight
 but ton
 suc ceed
st ood
 creat ive
 200 2
 invest ors
 squ are
 art icles
 is land
 death s
 fun ctions
 net works
 class es
 unlike ly
al ty
ird s
 head s
 P rem
ic ian
 b oss
ic ious
 n ative
 l ie
 L ib
in te
 rough ly
 W he
 St r
 consum er
m es
 sa v
 W alk
f ortunately
 M s
E n
 May be
 heav ily
 str ing
 An other
 fair ly
 temper ature
 k it
 exist ence
 It s
 As ia
 cont est
 pl ot
iss ions
 C ub
P U
 res ident
 targ ets
ard en
 B ob
us al
 res c
 Kore an
du c
 l ock
' ,
 young er
 colle agues
 Sw ed
M an
 l ibrary
ab b
\xc3 \xb6
 r ally
 par liament
 prot ests
 any where
ok ed
 S ports
 S ky
z ona
 b ike
 bre aking
ic an
 store s
 exp ression
 sy m
u a
 ch ain
 bl ow
O b
 war ning
 import ance
g reg
i i
 def ined
 bu ying
 was te
 man age
 pro hib
ch o
 class ic
 c ere
 s now
 adult s
 E ach
 ill ust
 market ing
S ee
 l inks
\xc3 \xb3
b orn
 sh if
iqu es
and al
I R
 Cl ub
 to w
 H ist
O C
 f raud
 fac ility
d is
olly wood
p ret
 ha rdware
 sch ol
 3 7
 alleged ly
 regul ations
 do ctors
 b on
 Color ado
 cur rency
 house hold
 repl aced
 ess ential
 R am
ag an
8 6
 em pt
op y
on na
 can n
d epend
 some what
 n av
 fav our
 prom ise
 D C
p ower
 B oy
 l augh
 D iv
en a
 R ights
P ol
 hold s
 opp osite
\xd1 \x81
 mom ents
 h at
w est
 opp onent
 bu g
ter ing
 F ar
 camp us
ock et
 act s
 r um
etro it
 vers ions
 met al
 mot ion
hip s
 ev olution
omet imes
 v ice
 rele vant
 se es
 Im age
 b ag
om a
 z ero
 s ick
 d ownt
 close ly
het ic
 emot ional
g ame
 You Tube
I F
 Y ear
 few er
 div ision
 ad m
 hard er
 ref ere
 custom er
 to m
 hop ing
p ress
 Bro ok
Don ald
 Val ley
olog ist
 h ur
 mechan ism
N C
it tle
m l
 H ouston
 return s
 E lect
 vol unte
in em
ate ll
 particip ants
 ext ent
 int ention
es c
al ian
ul ous
 excell ent
 Sov iet
el lect
 M ot
 acknow led
p an
om ing
 squ ad
 circumst ances
 G ames
 f ashion
 is ol
\xc3 \xbc
ot al
 immedi ate
 E ric
 suff ering
 W atch
c hen
 bat t
 l ies
 t iny
 auth ors
 3 8
 g rown
or a
ig er
 G ar
ef ully
 imm igrants
\xc3 \x83
 kind s
ut ch
 4 9
 D ie
 che ap
 m ine
 detail ed
stand ing
ord an
n ame
n ic
 feat ured
ik i
 sy n
 me at
 S ar
 un us
 I P
 compet itive
 H el
ay ers
 describ e
 for med
 H ome
 carry ing
cer tain
 tourn ament
 A ut
n am
 tr ick
f riend
 relationship s
 fundament al
ke l
 w ave
 cy cle
 c razy
 C y
 sign ing
 W ay
 ter min
 gu ide
 w ins
 Cath olic
 ear ned
 dec line
st r
 reg ional
ens us
 em br
st yle
 ob serv
 str ange
 Palest inian
 Jes us
 L ong
 an cient
0 6
 frequ ently
 act ing
rom e
 An n
 Put in
 man ner
 eff icient
 pus hing
 C IA
 comfort able
 p ip
 C ard
 sh aring
 E conom
 sk ill
 w ire
oc key
 own ed
aw a
b ar
 commit ment
 E ll
 along side
 O F
 L ord
 Dav is
r ison
 controvers ial
 art ists
 refer red
an es
 e gg
O RE
 repeated ly
 m outh
0 9
 4 8
 indust rial
 T op
\xef \xbf
 inst ru
 3 4
F P
P er
 attempt ed
 fem in
um ber
 upd ated
f oot
 c ert
 pre gn
 O ld
 D i
 P S
x y
am ily
ad el
 ded icated
\xd0 \xbd
 A L
 post s
 sent ence
 De v
 up coming
 R ight
 N Y
0 8
h us
 D own
 col umn
 dep th
 pl ed
 virt ual
u able
u gh
 j ourney
 stru ck
\xd1 \x80
 stud io
 des k
 real ized
 E nergy
Des pite
0 7
% )
ce ived
D S
 med ic
iam i
 ser ving
ph y
 walk ed
 k ing
 r ing
 rep ut
 ur ban
y ou
 C le
 Char les
ograph ic
 W ild
k o
 target ed
 ch annel
 ass ets
lud ing
 t ort
 ins pired
 det ect
 hot el
 Ari zona
 news let
L ike
 Su pp
 un iverse
T wo
 ag enda
 ca using
 wat ched
 su icide
F r
 stre am
 over whel
 P y
 us ual
 surve illance
 int ent
 l iqu
 s ister
 opp onents
 chair man
Pe ople
so le
 d u
 W ars
 main stream
 lat ter
ren ce
 h all
m em
 surround ing
 fol ks
 know ing
ig g
 ord ers
c hers
 In f
u ated
 rem ote
 7 5
 M en
 s and
 liter ally
 J ava
 obser ved
 Cru z
 Ag ain
 subs id
ob b
g or
19 9
 inf l
 Def ense
ac c
 appro val
 V an
iz z
im ents
 bas ket
az i
 teac hers
at i
av or
 win ter
ici ency
az e
 exc iting
 T al
6 7
ay lor
 form at
 prot ected
b oy
 sim pl
 not iced
 deal ing
 You ng
r ations
i ro
 Ch ild
 prec ise
x ual
 deep ly
i pl
 communic ation
 g ang
 s ending
 J r
 f asc
om in
 bat tery
 w al
 sk y
 n arr
 fix ed
 as ide
 require ments
ab is
um s
 con gress
m un
 proper ties
r ors
w art
 al ive
 nar row
 w ake
all as
 pass ion
onym ous
 e ating
ens ity
 mist ake
O r
 Ar ch
b el
w oman
 expl ore
 coff ee
p ost
 P an
 for th
 197 0
 ra pe
 vol ume
 prom ised
 d iet
l ist
5 9
ack ing
 ris ks
 ex hib
 swe et
 Pol it
M ay
\xe2\x80\x99 .
 En ter
 F ort
 ne ut
 invol ving
 w age
 se lection
 test ed
 M ax
 fl u
ult ure
 defe at
 n orthern
 re ward
et her
 wel come
 phen ome
 C ast
 ext ended
 put s
 territ ory
 un employ
 refuge es
 s ample
 he ight
 approx imately
 K evin
 bl ame
 Br ad
 any way
 D etroit
 sh o
 destroy ed
 W at
ob ile
 imp ressive
 Step hen
0 4
as ks
 g ap
 pro of
 d ry
\xef\xbf \xbd
 cr ash
 un known
 loc ations
a ire
 select ed
 F il
 w est
ang es
ger y
 L u
ap se
 attack ed
 max imum
 M iller
 Wil son
 T it
 prom ote
 she l
 mere ly
as er
 franch ise
l v
we ight
ar ry
 requ ests
 ret ire
st one
 sudden ly
 slow ly
 prot esters
 P R
 dis ag
a o
i xt
 teac her
 typ ical
og an
 W omen
ing u
ri ve
 con ver
 ch ose
 C amer
 Cl ass
 mat ches
 M ic
 lic ense
 proper ly
 ass ume
 disc over
or ation
 w id
 wor ried
 mod er
f ire
0 3
 ab ortion
 all ies
ow ered
 terror ism
 ob lig
 support s
  \xce
uild ing
ins on
ver ty
 arg uments
 them e
 ad apt
 conf ront
 p al
 fac ilities
 E r
v y
 sust ain
 e ast
g ender
 recogn ize
 resist ance
ig ure
 f uck
l ies
I nt
m o
R el
 e ve
d ro
 equ ival
 obtain ed
 po verty
 r ub
 It aly
 nom ine
 de als
 fe es
al o
 H ollywood
it arian
 under stood
 contro lled
V ER
 B est
 top ic
6 8
 D am
 crit ics
 Soc iety
 Ag ency
ax y
 F ord
 so le
 Jer sey
ar ity
 vill age
 di agn
 Ad minist
ra id
 lik es
ce ler
 F our
st ers
 ev il
ast s
 Geor gia
 b unch
 Comp any
 journal ists
c ript
au g
J ohn
 exp osed
 reg ions
oc ation
ll s
red it
 p ed
 sche me
 communic ations
 trans p
 st im
 lim its
 some how
 strong ly
 hon or
 dr ag
 Car l
 ch ampion
 L abor
 const ant
 ph ase
 NAS A
p ool
 prof it
 tr uck
 N ight
 cond em
 person ally
C A
 esc ape
 D un
rim ination
 L and
 b id
 N HL
 vac c
 St and
 dec k
nes ota
if orm
 fall ing
GB T
 Net work
 some where
 har ass
 employ ee
em s
ad s
 be ar
ow a
 C D
 compar ison
ci ples
ort ed
 poll s
 in qu
5 7
 s outhern
 dec ent
or ic
 Sp anish
 encour age
 em issions
 3 9
 V iew
 L ove
 C am
 empt y
end ers
 K n
 M iami
 h its
c ow
 defin ition
 p ic
w an
 direct ed
p es
 B ell
 f lex
 O k
z ens
 meet ings
 comp rom
 win ner
int end
pect ed
ick en
 got ten
 E nd
 D aniel
 Tur k
 electric ity
 ch osen
 offic ially
 ben ch
 stret ch
 datab ase
 Des pite
 sp in
ig ation
 strong er
 int ellect
 de leg
 purp oses
 D NA
 cut ting
 f old
 T urn
 ext ensive
 amount s
C om
 des per
 tre es
 an x
 ide al
 As ian
as ters
em e
af e
 th read
 fif th
0 2
a un
\x88 \x92
 col on
 good s
 develop er
U R
 claim ing
un ning
An y
 re tain
 capt ured
in er
c r
 Th ough
 find s
 dri ven
 pay ments
C S
 t ies
 J ordan
C E
 reason able
 dog s
\xe2 \x96
 some body
 end ing
 N ations
 cho ices
 b le
 p od
 se ats
 Serv ices
 Th ank
 eng age
 d rawn
ol t
 s ight
ur a
 par am
 threat ened
 rul ed
 D ar
 Att orney
 Ir ish
ep ing
 Se a
 trad ing
al le
\xd0\xbe \xd0
ow ed
 prim arily
 5 5
 aspect s
 f ighters
M L
 answ ers
ul ating
 perfect ly
ir ms
 inc l
 Ac adem
 r ival
 park ing
 reject ed
 G all
 const antly
Ad d
 H un
 pay ment
 dist inct
 C at
7 8
 U t
 f lying
 r ig
 techn ologies
iven ess
 Re al
m od
os is
< /
 comp onents
Pol ice
d it
 ad mit
 Scot land
 else where
 D ark
 const it
 any more
se a
 field s
  icon
E W
 estim ates
 sol utions
ld er
 result ing
 aw esome
 enc oun
 prov ince
 W ater
ur b
 world wide
 act or
 reg ularly
 Mo ore
 cour ts
 narr ative
 B ru
O nce
 b oot
3 00
 enem ies
 O S
 mix ed
reg on
 Dis ney
ic er
 hous es
 no body
 S k
in ations
 control s
ry where
 let ters
ag ram
 4 2
 progress ive
im p
r as
ian a
 may or
 lo an
 m urd
 out come
 M S
 cont em
od d
s hip
 s oul
 L ight
on ic
ap es
 ap artment
is an
 coal ition
 Ste ven
 contribut ed
 B as
se ll
 t ank
 conclud ed
 Ad am
 ex ists
 found er
 T w
 B rian
ear ing
 atmosp here
 L ew
 prof ile
 bre w
k er
 sit uations
 Ch ampionship
S ec
D r
 A uthor
 incred ible
 sign al
 Const itution
 un p
 accur ate
 R og
ot es
 Vict or
ot ten
 W here
 S outhern
." [
 employ ment
s m
 cl ients
l ock
 inform ed
 contin uing
 base ball
e z
r ates
 gener ate
 tick et
 con ven
Al so
 Con f
 we ird
 k il
 t ied
 categ ory
in ity
il arly
ar on
 ang ry
 Or gan
 rout ine
ack ed
adel ph
 keep s
 ra ising
 mach ines
 regist ered
 pro ved
the re
 dem ands
 g aming
 It alian
 incred ibly
 cru cial
M P
 st uck
 C ivil
 D allas
er a
 ter rible
 feed back
 u pper
 pl astic
 im per
 new ly
 Jose ph
r age
 consum ption
 ent hus
 do zen
 est ate
 inn oc
 man ip
 cons cious
 bill s
 Sp ain
ific ations
T oday
 establ ish
 writ ers
 C ross
6 9
 ex cess
ind ing
 aggress ive
 rep orter
 comp ens
 ret urning
 st ead
 T em
 program ming
 Th anks
 represent ed
 conclus ion
 r us
 B owl
ic ate
c ers
M S
 orig in
 assist ant
 A R
 ro ster
 Min nesota
 organ ized
 pen alty
adelph ia
 drink ing
al i
ri a
 pain t
 s atell
 Pro gram
 g ro
 capt ure
 cons pir
 r u
 inter pret
 explan ation
isc al
 count y
isc ons
ess ed
im a
  %
ann y
L A
gor ith
iscons in
 assist ance
 Rom an
 compl aint
 n ut
m ont
 mag ic
 t all
 O per
em en
 gr anted
B ecause
 Cont in
 Par liament
O ff
st ar
if er
 compl icated
 aud io
 G i
 ch ances
 ext ract
 199 9
 he l
 E duc
 sh ares
 success fully
ry pt
z y
es y
f ast
5 8
P r
 pil ot
 I T
b al
 E p
 H ot
 my th
  00
 rec overy
 techn iques
  iron
 C are
 S C
 Z eal
 T est
 scen es
 veter an
 F re
 ( $
 deg rees
 W in
act ions
 sym pt
the w
 law makers
k ed
re p
 w estern
 oper ate
r ating
 ad s
 ha bit
 aim ed
anche ster
 ph r
re te
 tast e
id ency
 eng aged
 priv ile
 r ating
In st
 teach ing
 academ ic
 the rap
 doll ar
 pass es
he nt
 autom atically
 Pac ific
 mon it
l ers
 bl ocks
ab ama
 att ended
 perman ent
 surv ive
 ant icip
 L ook
 en able
 Fore ign
5 6
 ext rem
% .
ch ain
 mark ed
it als
 h idden
 acc omp
 Sen ator
 tit les
 N BC
u an
 t aught
 Lin ux
 b om
 ind ex
ever al
 el ite
H S
 lawy ers
 ro ot
 dep ending
f rom
 val uable
 inst alled
 ch ampionship
m al
 comp re
 B ull
 downt ow
a ed
 equival ent
r ific
 sol ve
 d uty
 Spe cial
 B usiness
 6 4
 p ace
 reput ation
 un certain
 ph ones
u ine
 d ress
 over se
 T aylor
 person nel
 p in
re ams
 suff icient
atur ally
 vis ited
 S n
 war ming
 prin ciples
 vulner able
it ar
 enjoy ed
 f ake
 N ick
 adv is
 negoti ations
 gener ated
 exp osure
E A
 rec ording
 collect ed
 regard less
 d ict
b ro
\xe3 \x80
 bit coin
 e lev
 C oll
 c up
 An th
 K elly
 downtow n
 pattern s
Get ty
) )
 T ake
 A venue
 J osh
 ch at
 dis aster
 c able
 6 5
 work er
 main ly
 rac ial
qu arters
 Co ast
 V iet
 p ounds
mon th
8 9
 1 50
 C all
 A h
 port ion
 af raid
 O s
 ins pir
 def ence
 M ars
 E astern
 T ony
 track s
 bus y
 gr ant
 int ense
 Ser ies
 L GBT
 sh it
 b es
ath y
as hes
or ne
man n
 St ill
y e
 fun ny
 ap olog
 sur gery
 4 4
 Mos cow
 poss ession
r f
 prom inent
 com ic
 cont r
 R ay
 th in
 engine ering
 trou b
H A
act ive
 K urd
 process es
 N ation
f all
 K ent
 C ome
d a
 ent it
  \xe2\x80\x99
th is
 unus ual
rap h
et ary
 describ es
c ies
w orld
 result ed
 g all
 emer ged
 tax p
 d im
il er
 bl ind
 4 00
 prop ag
t es
 I owa
 O regon
er r
 cor ruption
 co ordin
 st ations
 In vest
 f ought
 br ut
 ext ension
 A D
 adop ted
pr ise
 compet e
 rec ru
 Zeal and
 had n
 L o
 m ail
 eve rywhere
ll a
 B alt
 cry pt
M ean
he rent
 contract s
 A li
f ront
 De ad
C ol
 R ick
 feel ings
 f irms
idel ines
\xe2\x80\x99 ,
 minor ity
 sp r
 advert ising
c les
 rare ly
 disc ipl
 ne uro
m aking
 N orthern
 san ctions
 V eg
7 9
sc ape
 Phil adelphia
up id
re f
U L
 camer as
 expl icit
 str ict
R ec
v iously
 en orm
 fin ance
 c ited
l og
if ies
 Be fore
 short ly
 Pol icy
 expect ations
ind er
g un
 implement ation
 rec ip
cl ing
 M u
 Gree k
 th ick
 thous and
ant ic
ist ent
 l oud
 aff ili
or ough
 N avy
 in ev
\xc3\x83 \xc3\x82
 res erve
 phot ograph
C o
 med ium
az z
 H om
t est
 W isconsin
 scen ario
 F ood
 h o
 su p
 L ive
il ton
 pl ug
 ve get
\xc3\x83\xc3\x82 \xc3\x83
\xc3\x82 \xc3\x83\xc3\x82
 vis ible
AT E
og en
 light s
er m
 creat es
L C
 prior ity
 br idge
el and
ink ing
 ag ric
 v en
ur rent
 per mission
ig en
 al gorith
 F oot
7 6
 particip ate
ask a
wh o
 w ing
as ion
 brow ser
 Gl obal
 t ag
 O l
 H as
 As h
 m el
 ac celer
 do zens
 King dom
 histor ic
 comput ers
iz on
 la id
 basket ball
 loss es
c us
og ether
: :
 un w
 Am endment
 t or
 strik es
u ce
 princ iple
 Develop ment
E P
 form al
M ar
 sc oring
at hered
 coun sel
+ +
 sh ock
ab s
5 2
 wonder ful
c a
 S P
 beh alf
5 4
 un com
prof it
U s
ent h
 inter face
 establ ishment
 Hen ry
e en
 to ler
 G reg
am ber
j o
 M ajor
 fe e
 Th us
le te
 g ained
et ime
 found ed
 found ation
 E SP
ili pp
 club s
 j u
 cann abis
e lect
 ob st
 air port
 Ke y
5 1
 b orrow
s he
B O
b ell
 manufact uring
ol is
 b ra
 re ly
 H it
c ar
b a
 P ay
y stem
 Al abama
 gen uine
 R oyal
Be fore
r ative
 comp onent
 rid ic
 whe el
 O ak
 journal ist
ose xual
 rel ief
rat ors
 sa ved
 y ield
 cy ber
 h ole
 head ed
 M oh
 g ift
 withd raw
 f ault
 indic ate
 draw ing
 un iform
 sh ips
 R and
ar lier
um er
 st able
 - >
P ost
 ban ned
 M id
 foot age
Mean while
 un fort
rou s
 do ors
 recogn ized
l an
 unfort u
p read
am i
 19 60
 cont aining
4 00
 F C
 V is
 unfortu n
 r iver
m ate
 strugg ling
S ub
 sp ark
 Academ y
 wall s
 achie ved
op her
 neigh b
 A S
oun ced
an ing
 pl ate
 ed ition
 H T
te en
port ion
 move ments
a us
 deli ber
 S now
 int egr
 Th ree
 epis odes
 neut ral
 Prem ier
 R et
 F und
 except ion
et ts
 produ cer
 st ab
 F red
 dest ruction
 199 8
ou red
 belief s
 Re view
 p ump
 Mc G
 leg end
u er
 back ed
 lik ed
 h ired
ides pread
h o
c ription
 ro les
 langu ages
 profess ion
 ent ering
enc e
 V R
os a
 interview s
 h ang
is p
 to x
 philosoph y
 Administ ration
em an
 ar range
 N ob
 fl aw
 K ir
Th ose
sy lv
t a
o en
im ore
 st adium
 Atlant a
 J ac
 redu ction
 din ner
i el
bur gh
 b ath
 Rep ort
 Turk ish
it i
 a ver
 mag n
 f inger
 N ote
 Con ference
 tack le
 ch a
 g onna
M e
 Pro te
 Die go
 Cent re
 c rop
 farm ers
 M anchester
 nomine e
 4 1
 Ar m
ach ing
 J ason
5 3
 bare ly
AT O
t hen
te d
 struct ures
 cont ained
 sh arp
 sy nt
 deli very
 O tt
% ,
 process ing
 disc rimination
 conv in
 inc ent
ri ers
R S
 F air
j a
8 7
 e nt
 D ata
 In depend
abin et
 4 7
E d
 intellect ual
i y
ams ung
 Rad io
 B ry
 O K
 F ield
 D id
 up set
 Per haps
l s
 Educ ation
 In s
sylv ania
aw ay
 M ir
P resident
ost er
 challeng ing
 restrict ions
 pro ven
 fore ver
h ttps
 elect ronic
 hit ting
u per
ol en
 H ay
ra v
 un ex
 Christ ians
 4 3
 review s
 e uro
 N C
 conv icted
 ill ness
p age
 sm ooth
D av
 ret ired
 H or
St ar
 indic ated
us ive
 h am
 produ cing
 Ab out
 Har ry
 rapid ly
 m o
 ro se
 h ide
 corpor ations
 R us
 o cean
 P oint
ow ing
ay ing
 list ening
f r
 Re uters
 U FC
 S at
 techn ique
 l oyal
 N ic
sel s
y ard
 rob ot
ob s
 not ion
 beg un
 ut il
 F ed
 recogn ition
eng ers
ou ver
 per pet
ri k
 associ ation
 mil k
 as ks
 P en
in f
 webs ites
 re n
 desc ription
 P ack
 tick ets
ach us
 fl ash
ion e
 suggest ing
 Jud ge
enn y
 4 6
 exclus ive
 reach ing
ul us
 prep are
less ly
 K ansas
im m
Wh o
 b ail
 fr ag
 equ ally
 R ose
 hard ly
 ex ceed
 w idespread
 A BC
 campaign s
 May or
um a
 cont ribute
ud es
 br anch
L ook
es ter
olog ists
 gr ass
 initi ative
 eth nic
 Mark et
 ex ternal
ik es
 C irc
 sens itive
r ical
 pract ical
el f
 unc lear
 norm ally
R ef
ell igence
b ec
 we lf
 F ull
 redu cing
app y
 friend ly
th on
 care fully
 Arab ia
p at
 C O
l ad
 R ef
 L y
 L uc
P M
 rac ist
ri ent
 inv ent
P G
U N
 respect ively
 Ne xt
ou ch
 t ail
 McC ain
anc ouver
 overwhel ming
 view ers
 Bern ie
 Be ach
 welf are
arr ass
 F urther
 convin ced
 sm oke
 coll apse
 involve ment
 L ind
 S S
 th rown
 connect ions
he ast
 terror ists
 B attle
 strateg ic
 h ook
 rec over
 Lat in
pl oad
omet hing
igr ant
 O nt
 w ine
rat or
M c
ino is
st ract
 Mus ic
ro lled
 mind s
 v ital
 settle ment
 stat istics
 l ists
 v ary
 feat uring
 ESP N
achus etts
ec ut
 S ir
 behavi our
 independ ence
 D ig
 c os
d em
e le
 fant asy
ig ible
 dev ast
w orth
ned y
ut ies
 inv ited
 compl aints
 jo ining
 score s
 f iscal
 deep er
 Penn sylvania
if est
 st eal
 an ger
 dep uty
 w ars
 II I
 Squ are
 investig ate
 T enn
ust ed
 T own
 su gar
 schol ars
 P it
 i OS
 any body
 subject s
 ar ray
 A ND
b n
F A
 al ien
 G ov
 l obby
 U lt
 owners hip
 frame work
 unemploy ment
h ot
 Div ision
 trans gender
 improve ments
 men u
 pe ak
 20 2
 sc reens
B ack
ih ad
 in ject
 l uck
 def ine
ivers ary
 t asks
 X box
 dem ocratic
 sc andal
ag g
ick ing
 j ury
R I
C he
ac on
 Ant on
 Min istry
 compre hens
 K at
 disc overy
un ior
 reg ister
 cas ual
f ound
os it
 citiz en
h an
d ri
 f ab
S m
 road s
 disag ree
 fail ing
 L ittle
c ore
 J ay
 const itutional
 dynam ic
 ser ves
 Camer on
 Bro ther
 test im
 g athered
 In formation
 St one
 M ah
 N ever
 s oph
od ing
 implement ed
 controvers y
 collect ive
 tr ained
ann a
 N SA
 neigh bour
 fear s
level and
 sam ples
 f iction
 pro sec
 est imate
 Commun ity
 I ce
 Med ical
' .
 199 7
 Ph ilipp
 refer ring
 t ip
 cap tain
 199 6
W ill
 sp aces
 E s
 t rem
 Walk er
 vers us
c ific
ar re
 leg s
 Sant a
 tem porary
P C
 no ise
 s in
 H D
 incor por
 H a
 t one
ak a
 over t
 hyp ot
 visit ors
 re ven
 civil ians
 w ages
 rem arks
 aware ness
 O N
 Spr ing
 recomm ended
 st upid
 All en
 head ing
 hand ful
um in
 reg ulation
 C ore
 A ction
ick et
 platform s
 acc us
 Anth ony
m ad
 aff airs
 touch down
 r ural
 attack ing
 pred ic
g ener
 ext end
 ult imate
 att ached
 Veg as
 discuss ions
 hor se
b i
 B rew
 rep rodu
 gen etic
 expand ed
 attempt ing
ph ones
 Mat thew
 r aces
inc luding
ir y
 Que en
 r aw
 ign ore
 Columb ia
A G
 P ent
h our
 Guard ian
7 2
 C ook
 i P
ition ally
 sympt oms
 Pat rick
 suff er
 sett ings
 g ear
 M ake
all ing
 sal ary
we et
 lic ens
 R en
m ary
7 4
 tweet ed
 w w
c ase
 public ation
 br ill
 fact ory
 suspect ed
 purch ased
 inter vention
are t
 eas tern
 hol iday
 the at
20 14
 dis pl
Ab out
" )
 rank ed
 ne ck
 Conserv ative
 Aust in
i ability
 M useum
 R oy
 c ro
es h
 B udd
 enorm ous
intend o
 c ogn
 log ic
ult ural
ict ions
 AP I
 improve ment
 view ed
 ing red
 ww w
 entertain ment
 legit imate
 Prof essor
omm od
 pres um
re c
 Al bert
 Mass achusetts
 B all
 201 9
S en
 act ors
 substant ial
 human ity
 invol ves
 brother s
 liqu id
ar ms
 r ational
 seem ingly
 s orry
 lay er
 H o
 lo ans
 ro ok
 investig ating
 abs ence
 prov iders
 tom orrow
 b ureau
 fall en
 ground s
 co aches
 st ake
 res ign
 advoc ates
l ah
 \xe2 \x82\xac
ot y
 investig ators
R C
 conspir acy
 medic ine
 dram atic
W here
ov al
New s
 mon itor
 f ulf
 Ch air
 c oc
 ch apter
re pre
 Se ason
E G
. -
 over s
ES T
 activ ist
 bo at
 Che ck
 Cont rol
 g am
 j ur
 susp ended
 p apers
 Gree ce
 opin ions
 S uch
 R a
ple te
 R oss
 miss ile
 Gold en
 cele b
 Rev olution
 He ad
 stay ed
 co vers
p ed
iver pool
 d iversity
 b ars
20 16
Sc ript
P art
R uss
 emb arrass
 A cc
x it
 offic es
re ts
cl aim
our se
 P ot
 Iran ian
 dis rupt
 W W
 pre ced
we red
 fore st
 care ful
il a
 po ly
co ver
repre ne
v ard
 am id
 Hist ory
 m ad
 P o
 H ospital
ist ing
am med
 A le
 A p
 aut hent
 Ill inois
u ction
 C BS
 S ony
r ine
ge on
Rel ated
 transport ation
 V ancouver
 G aza
 hand ed
 prot ocol
 consist ently
 5 2
inte rest
 mount ain
 read s
 St at
 pre f
 con ce
 clot hes
 att itude
 Sh are
 Ken nedy
 p orn
qu est
 princ ip
 F reedom
 dep ends
 min ing
 H ard
d es
 pet ition
 not ing
 war rant
 col ors
 low est
 And erson
 des er
 add ressed
 F amily
 T ri
un es
 j e
 ent r
x x
 St adium
 throw ing
 virt ually
 f ruit
! )
 st one
 Me an
 f oss
 guarant ee
 refere nd
 B a
B oth
? ?
 speak s
 Balt imore
 in ner
 ste el
 cl osing
it ting
 read er
 C re
F F
 bu ff
 person ality
 appreci ate
 Iraq i
 En vironment
 sur f
ien ces
 hand ling
 prof its
m aker
in ch
ord on
 Bro ad
 k m
 mar ks
 tri es
 contribut ions
rop ri
 spirit ual
 convers ations
z ed
 fant astic
 l ands
 con sole
pp ers
" .[
ic ity
 g ains
 cover ing
 te a
sen al
iv als
 Har ris
ut ed
 hor ror
 ast ron
 h int
av al
 should er
sc ale
 w rest
 E xt
 gu est
 acc ommod
u its
 T ro
 dep ression
  _
 Lew is
 B ang
 l ucky
 encour aged
fl ix
am ac
 jud ges
 f u
 inc idents
 C leveland
 d rew
ir a
 subsequ ent
 sp oken
 How ard
 B ad
ann els
 bro wn
P lease
 b acter
 r het
 r anks
 Get ty
ix ed
 phot ograp
 infl ation
 Int elligence
 m aps
ab eth
ed ing
 9 9
8 00
 Pat ri
port ed
ij ing
pl ate
 div ided
 199 5
 N ATO
 dr ama
 Mex ican
 dist ributed
 resc ue
 innov ation
 g al
ke ep
l ow
un icip
 c ust
 Un fortunately
 prem ium
 vot er
 per mit
 re vel
 K ong
 d ance
 L as
pl ed
 sw ing
ang el
N ote
 eff iciency
 prom ises
 Ind eed
m at
 C H
 Wh ich
 5 1
 ball ot
 temper atures
 S amsung
 port ray
 spokes person
p ie
 l ocked
 l ying
 impro ving
 th rew
 j oy
 d ump
 mus ical
P P
 mist akes
Ar t
d ated
 sh out
 St art
 hom eless
6 2
con f
 replace ment
 com edy
 che cks
 With out
 M oon
er ies
s es
oun ce
 acknowled ged
 bar rel
 Con nect
 response s
 protect ing
back s
 S af
6 3
 D et
\xc2 \x92
he im
 sil ver
 cop ies
A ss
um es
 l es
 A C
 d ad
 break s
 B uff
 Pl us
 common ly
 le ts
 leg acy
it age
 prote in
 mat hem
 jo ke
amac are
h op
 pass engers
 y ellow
20 15
 Mar vel
 n aturally
Y our
 S cient
 nom ination
 meas ured
ap ing
S ource
 instru ment
 abandon ed
al ia
 U se
od ed
 Pr ince
 stud ied
 par alle
 Foot ball
hel sea
 d iverse
6 1
 r om
arg o
 acqu ired
 L yn
iet ies
 M arsh
 so il
 demonst rated
 bl ast
 re ar
y o
 fund ed
 head quarters
hes is
 st olen
ini ans
 sc an
 count s
 t ape
 partners hip
 mid field
 N OT
 ( \xe2\x80\x9c
 upgr ade
 C ost
 Atlant ic
C ons
 m arch
 gr id
 ord inary
 A ud
 N ev
 liter ature
 pl ain
aw are
 st ages
h igh
 \xe2\x80 \xa2
 ass ert
 199 4
 A I
est y
 help ful
 arri ve
 ex it
 sc ope
 fall s
z ing
d og
 ign ored
B M
y er
 tw enty
et ers
 cl ock
 com pe
 M aster
in ction
m ble
 vir us
 referend um
 in equ
 T rib
 un ions
 Do es
 C A
ass ador
 conserv atives
 G un
 r if
 sy mp
H er
 f estival
 sho pping
 a x
 wat ers
 f ro
 cap abilities
 pro to
 B ron
i ate
lah oma
 us age
 H ind
 Em pire
aed a
 P op
 Indian a
 trans actions
ile y
 hop ed
 dist ract
 gu itar
7 3
 E ag
ugh t
ct ic
 Ab b
 r amp
 assess ment
 univers ities
 D ave
 m oon
 monit oring
ack et
F acebook
 represent ing
 rat io
 De ath
br idge
en cing
orm al
 convention al
com es
US T
 tr ave
 track ing
d oor
 S et
U nder
 A st
nt il
 S ometimes
on ly
 R os
sh ire
 rel iable
 h ung
 t ie
 propos als
 ske pt
 repl ied
V E
 critic ized
K e
 appear ances
ing ton
c ut
 rac ism
 L im
ecut ive
 aut o
 ins isted
f und
r imin
el a
 introdu ction
u h
or gan
 appoint ed
 B ureau
d ney
ag ic
 P ass
 202 0
ol ph
 L ine
 conc rete
 beaut y
\xd0 \xbb
 rece iver
 supp lies
 perform ing
 b ub
 ex ch
 He ll
 vis iting
 Techn ology
 Den ver
 Pro v
m ade
 J am
 C apt
or ge
R L
the less
om es
oc ument
 let ting
 sw im
ag a
 def icit
AN D
H T
 class ified
 Gal axy
 abs or
 Or ig
 re nder
 program me
 pres idency
 ob s
c rib
 block ed
 Swed en
 Ut ah
 dro ve
 land scape
arch y
 d ust
 can ce
 Port land
 dismiss ed
 ab road
 bon us
 T our
pl us
E E
7 1
 sequ ence
 predic ted
j i
 sen ator
 S us
\xc2 \xb0
 e c
 A ge
6 00
 dom ain
 C ode
N S
 m useum
 Associ ated
ac co
 war n
 pers ons
 d ub
 trig ger
 Ont ario
 h ockey
 Cor por
 request ed
 art ific
 d ates
ian o
 testim ony
 cent ers
 rock et
 trans it
 congress ional
 v es
 entit led
ult ane
 spokes woman
 Fr ont
 N intendo
 Alex ander
h ar
k ing
 Co oper
m ony
 ass ign
 B on
 equ ality
 p atch
 ur ged
 b read
 Olymp ic
 document ary
r ite
 veter ans
 cl ar
 hy per
 W ik
8 4
 \xe2\x80 \x9d
f ol
 rec all
 pop ulations
 L A
 breat h
St ill
pt on
room s
 L ow
A re
 when ever
 viol ation
 tact ics
 w ider
 K ar
 target ing
ound ing
Y et
 purs ue
 s alt
" >
th rough
iz abeth
 f iring
 ac id
in ating
d y
is ons
C omp
 restaur ants
 comp are
enn is
 employ ed
or ous
 Rober ts
 cont rad
 B ible
 polit ically
a ver
at ar
 phr ase
ah u
 satell ite
 surv ival
 C ro
 retire ment
 bank ing
 F orm
 brill iant
 G irl
 ch annels
 ser vers
 Be ijing
 soc cer
iv e
 M ach
 bur den
 introdu ce
the y
 exper iments
ilit ary
ene z
 prison ers
O K
 c ig
j ud
ra pped
 W H
 f ighter
 scient ist
 Y OU
usal em
 L ist
 sub mit
ik a
 appro ached
 A ward
 month ly
 L iverpool
 B ra
 design s
 representative s
 c ul
 tit led
ord inary
 qu ote
 popular ity
 ab ilities
oen ix
 P D
 members hip
 investig ations
 focus ing
 h osp
 b ab
 Br idge
 Mary land
Th ough
 sa ving
tr ans
b ow
 r ush
 Govern or
 Ad v
 sh adow
ou ri
 B ase
 object ive
 H ur
p a
ber ry
 T ed
 m it
eder ation
 t ips
 W as
 pre par
Dav id
 pip eline
 child hood
 rat ings
 th orough
 ent reprene
 D utch
ent er
is a
 V ill
w as
bre ak
 act ively
 Har vard
 p ig
 demand ing
 lo ose
8 3
ast y
C O
 unex pected
 sm oking
d on
 sm ell
 den y
 univers al
 fore cast
 arg ues
 phenome non
 overse as
 sett led
old s
m ers
 Be ck
w alk
 gener ations
 week ly
 ch icken
 prep aring
 smart phone
 but t
 9 5
 produ cers
 legisl ative
 anx iety
 H ave
 innoc ent
min ute
 C lick
 mort g
 celebr ate
 prov ision
D em
 D O
 ke ys
 m ini
 sh ame
 arg uing
 Just in
 Des ign
he ld
ag h
 question ed
 for cing
 C ow
 H op
omp son
S L
\xe2 \x94
 broad er
 encoun ter
 fl ags
 f ool
S im
 m ac
 5 3
 f ur
 dead ly
 re verse
 m os
 we igh
 Ed ward
 M ill
 U r
 Am ong
 t ens
  ~
 wealth y
 Ob amacare
 un pre
is k
 maintain ed
e als
 sure ly
 H on
 sh ield
 Pro p
ore t
ocol ate
 second ary
 sav ings
av ed
ir lf
 ro of
 st ability
 civil ian
\xc4 \x83
el son
 Car ter
 reve als
 A k
E l
 al arm
ig ent
m ind
 s orts
 ann iversary
vern ment
 ton ight
 rele ases
 room s
 G ulf
 out rage
 prosecut ors
irlf riend
 Le ft
in als
 dis order
 w edd
 ex ha
or ious
 rel ax
 sh r
 wind ows
 threat ening
 different ly
 harass ment
 qu oted
 health care
 sub mitted
 ar bit
 l unch
 reform s
 tort ure
re ction
 f ate
 st ored
it ter
 R un
 Bel g
 o kay
v ity
st ep
 propag anda
 comprehens ive
 sp ots
 instruct ions
 Viet nam
 se vent
 round s
 odd s
 199 2
a is
ten ance
ht ml
 er rors
 a er
 Ok lahoma
ic ism
 de lic
resent ative
 Liber al
 sil ence
ail ed
a a
 Gra ham
o is
 War ren
act s
 grad uate
 afford able
 circ le
 Bl oom
se ct
 ass a
 cooper ation
 assa s
 p icks
 se ar
 Sar ah
 F all
ors hip
 Ex pl
 strik ing
 p uzz
 stre aming
 pers u
 important ly
 c ow
 poss ess
 f ing
W atch
o z
 Rub y
 exec ution
 int im
 strugg led
 S om
 P erson
 assas s
 Le ader
 g ent
 Sil ver
 S ab
 Pr ice
l ined
Re uters
T y
ish op
 hy dro
 Jer usalem
 des erve
 cal m
 land ing
 al ter
ov a
 h al
 cere mony
ut en
 assum ed
 demonst rate
 difficult y
 ag es
 pr on
 d ying
 dist ingu
ak h
et he
as ury
 ste pped
 b orders
 che st
 W olf
 L t
 B ud
 adv enture
 point ing
b ury
 w aves
 kil omet
ater n
ie v
ier ce
 Net flix
 aut onom
 precise ly
 architect ure
 great ly
 prom ising
 cons ent
 T en
 consider ation
 De b
 dri ves
 dial ogue
as ant
 M ain
 trem end
es see
 newslet ter
8 2
 rook ie
 award ed
 Mean while
 repe at
 St ory
 cont ribution
 Te le
 bur ning
part y
 sim ultane
 Scott ish
 V ice
 don ations
E X
it ol
 Mag ic
 P res
 vo ices
 analy st
 Bru ce
A Y
 Te ch
cept ions
 Comm on
 g if
 frequ ency
 proced ure
 want ing
 execut ives
 playoff s
o ice
 Ind ust
 stay ing
ap olis
 b irds
 bi as
V D
 H ong
 A z
 inc hes
s l
 tr illion
om y
hold ers
- >
 highlight s
iz er
 sem i
 remark able
 where as
 Palest inians
 kn ee
 Jon athan
 impl ications
 form ation
scrib e
 super ior
 strateg ies
it ual
ra ig
 Ber lin
er ted
 L ink
r us
rib utes
 Sy dney
st al
 an s
 M ORE
 Ar k
 categ ories
 follow ers
 f et
 cre am
St ory
F O
port ation
 contact ed
M s
 jud gment
 inf o
ann on
 sm ile
 emer ging
ig ious
 5 4
v ision
y es
v an
r if
op en
ar ia
h att
 E ff
ond er
vertise ments
 access ible
iff s
j s
 phys ically
 ass igned
 And re
 gu idelines
 defe ated
 cr imin
 w ounded
 st em
 tri als
 man aging
 spe ll
 min istry
 gr ade
 co inc
 r iding
 indic ates
 cent uries
Ch rist
 Aff airs
 op ens
 meaning ful
i ac
c est
om ed
 t iss
 Mr s
 e ase
ak i
 marg in
ch ild
 St ore
 clot hing
 \xe2 \x88\x92
 S ix
 Cap ital
d s
 particip ation
ced ented
A F
M us
 re vers
ere nt
 T es
T P
 po ison
T ER
le e
 Bre xit
 1 20
 Y emen
8 1
 l apt
 de em
a uthor
 compet ing
 mem ories
 C S
 the ories
 rec ipe
 pass age
um ble
 ph arm
 ag ed
 C redit
d iv
 b in
 dr one
 bl ank
 disp ute
 dam aged
 199 3
 Ham ilton
e ven
b ase
 fac ilit
 subst ance
 host ed
 L am
 C helsea
 promot ing
Go ogle
 open ly
er ia
 Inst agram
 g ross
 19 50
 V ik
 Child ren
 Cr ime
 clin ical
 n ic
b its
 Le on
ere my
 H old
 invest ments
 cons ensus
O ut
ig ate
 F al
 educ ational
u z
 dis h
 man ifest
 cust ody
 el igible
we ek
 Haw ai
 leg ally
 miss ions
 end orse
  ?
 g ate
 mem o
V iew
 G T
 t ables
 P ict
 n in
 stud ying
H z
ar ation
 char ity
 add resses
ol ves
 ins pect
 disc ount
AL L
ad i
P re
it o
 batt les
con st
 2 50
 > >
le ft
 athlet es
 Tr ade
 n a
 foss il
ri x
 enthus i
 Man agement
 suspect s
 t ired
 he lic
 counter part
 d ating
ac hel
re r
A ct
 E th
 spect rum
ater al
 St ation
 M etro
 present ation
 l ux
 B al
ge red
 bot tle
 t ap
ri ors
 fund ra
 enh ance
ass y
 Se an
 therap y
 W ales
 per ceived
 Ex per
 v ig
 T ok
 As sembly
 domin ant
 back ing
m ath
 F estival
 def ending
 under lying
D ef
 Th rough
 rac ing
 discuss ing
 expand ing
 stop s
 mus cle
 n u
9 6
 be ings
 Mar x
 E qu
 trans action
row s
mark et
 rec ruit
 U ber
it udes
ac her
C al
 G ary
 m ood
 pick ing
land o
yl um
 man agers
play er
or able
 gather ing
 hop efully
 cr us
 S on
 V ideo
ang le
al ysis
 Lib ya
 imp ression
 h ip
 res olve
se ction
\xc3 \xa2
 scr ut
 ro y
 T ai
 ter r
igen ous
 inst itution
 Bat man
} }
 st ere
ol ar
R em
 proced ures
\xc3 \xb1
 p ocket
 creat ures
 B oe
 comp at
 arri val
pt ions
ol n
 e ager
 poll ution
it ure
w atch
 food s
 kit chen
 rec re
oc ial
 surv iv
 organ ic
 Pent agon
 O p
 Mor gan
 sh ipping
 capital ism
 tim ing
 ins ult
 require ment
s ub
od ox
 unf air
9 8
 m ice
er ts
 Ass ad
ad ers
 ML S
 M ess
 5 6
h ard
 El izabeth
 dise ases
s k
 indust ries
 Oak land
 H art
  vert
 = =
 b owl
ative ly
 C reat
 Mur ray
 helic op
 div or
 be ach
M od
 pun ishment
ab et
ag ger
 fl ed
 hosp itals
miss ions
re ll
 t ons
 st y
 K ick
 se ed
og y
 Come y
opy right
 stat ist
 engine ers
 ob sc
 h ire
 n erv
 mod ule
S C
T R
R eg
oc a
 coach ing
 s ed
am ous
 ans wered
 graph ics
 regul atory
 so vere
 st ance
alt ies
 she ll
 b ow
 Ke ep
C lick
 expl aining
 rhet oric
 be ating
 t ut
 Em ail
 F riend
em ic
 Y eah
 M it
G e
 acknow ledge
w a
 princip al
 Mic hel
 pull ing
v ia
 sign ature
br id
ol ving
 conv ince
c re
 var iable
cos ystem
  !
 p ill
 search ing
 O x
 d ies
 over come
 prefer red
 six th
 adv iser
du ction
 Tenn essee
 trend s
 Th ompson
 ( "
 mer ch
 reb els
 inter action
 period s
 R oll
 psych ological
M ich
 S ure
 B i
 Us ing
 econom ics
 Charl ie
 Y an
 out lets
ro ph
r ac
p g
 sign als
 Rus sell
 e cho
 Kent ucky
 bill ions
v i
 tem por
 line up
 L i
 Ex ecutive
 m ath
net ic
ke e
 Int el
 199 1
 set up
 re nd
F inally
 G il
C omm
 egg s
 se gment
20 13
 ar r
 bad ly
 sent enced
 Dr agon
 every day
ll y
 command er
 H oll
 l oves
unicip al
u i
 gen es
N BC
 b old
 requ iring
P L
g ence
w ill
 inv asion
 bul let
 part ly
 esc al
 inst ant
 A N
 g ig
 J ean
 g ene
 ar ts
 rem oval
 u pload
 top ics
 under t
enez uel
 I ron
 inqu iry
 am endment
 weak ness
 R ather
 Z e
 concept s
h as
 sh oes
 fab ric
iz za
in stein
 S ound
 Mc K
 f o
 Del hi
E arlier
ib ilities
new s
 frequ ent
ts burgh
 se ctions
 occ urs
 m igrants
 compens ation
 engine er
 l ad
ol i
en ess
 F inally
 attract ive
 B ox
 un ve
  ).
 c iting
 twe ets
gr ade
 ut ility
aren cy
che ck
 ridic ulous
 post ing
 block chain
 cl er
 Cl ark
 speak er
 di am
 D ur
\xd8 \xa7
 cor rupt
 tal ented
 le ct
 coll aps
\xe2\x80 \x90
 m ask
ne cess
sc reen
 not able
 There fore
 e lder
 gen re
 p a
A B
 dead line
 ro lling
 car ries
 B M
 F inal
 E T
T op
ent al
 appro aches
 elimin ate
 analy sts
 s its
 c ens
 inst ances
 Pri v
 Sim on
 publ ishing
 unpre cedented
 col our
 ro ots
 Ph oenix
V P
 ar c
 b ene
 c ock
St ate
 tox ic
m ic
 He art
 collabor ation
G O
c or
 P sych
 inequ ality
 neighb ors
 ins ight
 dram atically
 hom osexual
 V e
 Har per
 town s
 pri ze
 extra ordinary
 per ception
 P A
 G ordon
 Whe ther
 5 9
 Ph ill
 par ad
 main tenance
ows ki
 G O
 che aper
is dom
 associ ate
 cou p
 S a
 G ro
 E vent
d ie
 she et
 B ow
 Bel ow
 dist ur
 S av
 Cap tain
 cogn itive
 encour aging
 d reams
!! !
 se ized
 interview ed
 deploy ed
 P ers
 viol ations
 camp s
 com ics
M ark
p ack
 constit u
 Re agan
 gl ad
 res erved
 employ ers
 bu ck
 aim s
 function al
 myster y
gr aph
 display ed
at us
P aul
ib an
s a
 sp an
 lo op
og a
est ed
ap ore
 de light
 C C
 tr aged
 Econom ic
ixt ure
ric ane
 occas ionally
 v end
 S ud
 ex port
T ON
 birth day
 5 7
 hero es
 fat al
est yle
he ro
 correct ly
 prompt ed
 st amp
arg et
 Co le
e xt
 contem porary
 paralle l
 J enn
 prospect s
ot ing
 A ccess
 ir re
 recommend ations
 diplom atic
m ir
igh th
 exc lud
 const itution
 disappoint ed
el le
 manufacture rs
 ad equ
 E ver
 St aff
 moder ate
li est
T ime
 D og
 e cosystem
on z
 accomp an
d r
 demand ed
 8 5
th rop
 G DP
 Phot os
 n ose
 Mont real
 D ick
el ing
ail able
 ple ased
 int r
end ar
 lab our
row ing
 lif etime
 Brook lyn
 T ax
 inter pre
20 17
 inf ect
 E st
 Res erve
 communic ate
 fight s
 mod ified
2 50
 dr unk
 O cean
 s essions
 wedd ing
 kn ock
 explos ion
F i
 L ibrary
 bi ological
 rep air
 land ed
 E PA
 Author ity
ri or
 represent ation
 sub sc
 G iven
 artific ial
 B ol
 5 8
le ans
1 50
f it
 rel ation
 own s
 Kh an
ix on
 Anton io
 Dig ital
 l ift
9 7
 em p
 design er
 Or der
 rec on
 conscious ness
 kick ed
Th anks
h ist
 def ender
 h anging
 less ons
 imp osed
 gu ests
ag en
 an onymous
 B ul
 concer ning
 s li
 adop t
w ind
 pregn ant
 F ive
inc oln
 maintain ing
 under ground
 ass et
ac re
 Al an
ch ing
 p unch
 R ome
 sh irt
 ingred ients
bour ne
Up date
 che ese
is ition
 Ch annel
 Con vention
 pod cast
 inter ior
 emot ions
": "
 D er
 Ar gent
 cou ples
 less on
 creat ure
W he
 sh ocked
 opp ose
 Rep resentative
 sum mit
 perform ances
 volunte ers
 B urn
s ome
 sold ier
\xd1 \x83
 S U
D is
 ab stract
 log o
\xe0 \xa4
app ropri
ist ant
h uman
 v ocal
 accompl ish
 acc um
 g irlfriend
 Prote ction
w ich
w ed
ult y
 jump ed
 ann oy
 P age
ik h
 j ihad
 m ile
 n urs
 L ear
 6 00
 milit ants
ac les
ab e
 gu id
 F ant
 Miss ouri
 profession als
 An na
ial s
Inst ead
G ener
( "
 s wit
 but ter
 travel ing
 ref ers
 desk top
 6 6
 l ibr
9 3
g ets
 isol ated
us er
ro ck
 for um
 advoc ate
 exist ed
 opp osing
 Co al
 rec alled
St ation
 C ase
 integr ation
Is rael
 describ ing
 box es
ro t
 Or leans
Ne xt
ear ly
 Java Script
 st ro
 pro s
 min imal
 H al
tain ment
 conf used
 S D
ump h
 C ustom
 peace ful
 in herent
 M ail
 H an
 surround ed
od ge
c al
own ed
 H and
 Cap itol
hatt an
9 2
com mun
G u
 h oles
 198 9
 me al
\xd0 \xba
 integr ity
 R s
s iss
 K now
 Play er
Ste p
 B an
 p m
 inspir ation
 pres erve
 config uration
 Tr ust
T E
\xf0 \x9f
 exp ense
iss is
 cred its
 N on
 sub ur
 ide ology
 elect oral
 y ell
 d ual
 sil ent
 Mar ine
g ate
 Do ctor
 st ack
 bur ied
 Nev ada
\xc3 \xa7
 s ne
im ize
 desper ate
 O cc
st arter
 sc ream
 cl ip
I d
 cho osing
ib l
 bom bs
 C B
i ens
 b ands
 team mates
 fle et
 S H
G E
Tr ans
 Bar b
\xe2\x80\xa6 .
 con vert
 accept able
ol s
 Or lando
S E
 W right
 regist ration
 j er
 Port ug
 Hit ler
 brut al
aw ks
ar o
S U
e lection
N et
 M ove
 On line
 All iance
 subscrib e
 sc ar
 strugg les
L ist
 key board
 moment um
N ame
 Le ban
F l
 Are a
 an cest
 promot ion
 Ar senal
 ev ident
 qu it
h ire
f ather
 organ isation
 V en
 wond ering
 Ind ones
 clos est
AR T
 embr ace
m its
book s
 Follow ing
 refuge e
 H amp
 te eth
 pro be
 ut ter
is d
Spe aking
to o
 W ord
 Ste el
 occas ional
 mon ster
che ll
 bank rupt
 ref erences
 journal ism
 as sembly
 exp enses
 subsequ ently
h r
 pr ide
 gu ards
ok er
 M un
9 4
 interpret ation
 V enezuel
 y eah
\xef \xbc
st op
 rem oving
 or bit
 l in
 Independ ent
G l
 W rit
 prof ound
ip edia
re tt
 Pit tsburgh
 comprom ise
 kn ife
 district s
 t ab
re nd
 exclus ively
 surv ived
 consider able
 mathem at
 st ating
 S ource
 eng aging
 C ould
 ref use
 b ird
 character istics
 Mount ain
G r
 R aj
 just ify
H P
 7 2
 dom inated
Q L
 brief ly
 N azi
20 12
ars on
 min isters
gr ad
 ch ip
U C
ou b
 elect ron
 tremend ous
 contr ary
 g ri
 sustain able
str ong
 pro st
 load ed
 fl our
 disapp ear
7 00
 nerv ous
Sh are
 rout es
orne ys
 B u
 pro portion
 soph istic
at tered
 execut ed
oc ated
 8 00
 D uke
 as ylum
 game play
 Every one
 sex ually
ut ter
He y
el ve
Th ank
 p ir
 don ors
 conf usion
 D ream
 revolution ary
ot te
 A aron
 And y
 P ant
c ap
D C
g ood
 cur ious
 h arsh
 Tre asury
lim ited
inc ome
 att ending
 Ad ams
 I M
\xc3 \xa8
im mer
 R est
 speak ers
 c abinet
\xc3\xb3 n
sec urity
 now here
ree k
 v oid
 ch ronic
 br ands
 print ed
 Tes la
 Sh ort
 charg ing
ir ts
 eng ines
ing e
 phys ics
 H aving
re ck
K E
 concer t
sc ar
 A lp
 Sher iff
f unction
 out comes
 A ren
 Off icer
 J un
ubl ished
 fle e
ol id
M AN
 sp o
 mir ror
 M ult
 G ib
 streng then
th ood
 fail s
. ]
 cha os
 pass enger
 iP ad
 crimin als
 f el
 Sp ir
 l obb
 Rob inson
 stead y
 Net her
 Cur rent
A g
mer ce
 \xc2 \xb1
 rob ust
 C ON
 Man hattan
 o rient
wh ite
 end ors
 spec ulation
 Ch ange
res hold
 cert ific
 deem ed
 Tal iban
 dro pping
 h iring
 Gi ants
 Sing apore
 integr ated
ri v
 Per ry
D R
 H u
 pres ents
 av o
 B and
 guarant eed
op t
 f ert
 ep ic
rf are
 le aked
app er
 N orm
 K ings
 pack ages
B N
 ple asure
 susp ension
 challeng ed
 pack ed
 d a
 check ing
\xe0 \xb8
 b its
 v it
 eng agement
 rad iation
 sl ot
 bomb ing
 pat ri
le ep
 al ert
P al
ist le
 w et
 hun ting
 US B
r ics
 F A
\xc4 \x81
 produ ces
 witness es
 m ol
 C raig
 edit orial
oph ob
 def ended
 rec overed
 H oly
im b
 develop ments
ment ed
 simultane ously
 bo om
 bacter ia
 L og
 block ing
R ight
 L ater
R ed
 attract ed
 fig ured
 O pp
 cor rel
 T el
 H ung
 all iance
 researc her
i hood
 taxp ayers
 Enter tainment
ast e
 N one
 cap s
in st
 accur a
 J eremy
 host s
 L es
 c inem
l ihood
 Russ ians
 pat ent
 at he
 exam ine
iz arre
c ard
if ier
 F uture
AT CH
 vari ables
 L incoln
 o xy
 em bed
ER E
 j unior
om ic
ate ful
lyn n
 G h
Bl ack
G A
 Chair man
 T ower
J P
 t ear
 publ ish
 T s
 E b
 6 2
g ly
 V lad
 v ent
 Pol and
 Ukrain ian
 Stud ies
ades h
gg ed
d ep
 en act
 W i
on ed
 fl ights
 D ak
 accura cy
m ay
 fl av
 l os
 impact s
C ar
 surprising ly
 sol o
 ra ises
 dist ribut
 burn ed
 K it
 r ic
v as
 B C
 B or
 ang le
 W ould
n ie
ac o
 ev ac
d am
o ft
 qual ified
 Ste wart
 decre ase
 C PU
 ev olved
 fl avor
im ir
 un necess
 U b
 as semb
 T otal
 intim id
 con secut
 O R
olit ical
 court esy
 fing ers
 MP s
 product ive
 v oc
 bl amed
 D u
ethe less
 H IV
 depend ent
 expect ing
 transfer red
 R angers
 G ill
 en abled
 ident ical
 vis its
 expect s
 l ane
d ict
 ign or
 acc ord
 Gr iff
C or
ter ror
an im
B ook
is hers
b ul
 bre ast
 v enture
 b arg
 sh ops
 depart ure
 Comm and
 Miss iss
 repe al
 motiv ated
 kill er
b in
 stri p
 rest ore
 agree ments
 conflic ts
th odox
 organ is
d f
 sc ared
 forg otten
b ound
 N i
 Th ink
ick ed
 in her
 nation wide
 Ed ition
ul se
 cy cl
b ian
 influ enced
 crit eria
ern and
 occup ied
 anim ation
 trail er
T O
 rank ing
 P ope
 Sh ould
 Th ings
  `
 back s
 tele phone
ah oo
 occas ion
un ity
 anal ys
 function ality
 Red dit
ab out
 check ed
M B
 concent ration
 res erv
 Mod el
 household s
look ing
l ink
 re ass
ond uct
 algorith m
 cour age
 Supp ort
 S ci
i ar
ress ing
 H ug
 promot ed
 imp rison
ou p
am ents
 explicit ly
 bat ter
 des p
 bab ies
 t anks
IL L
 o ught
 st atic
 rele asing
 Pro duct
 Pl ace
 ant ib
 sub tle
For mer
art ed
 E ve
 st ats
 b ases
 do ct
 N O
ag ine
ri ke
 privile ge
 More over
 War ner
b at
 Jer ry
 met ers
 entr ance
ipp i
 n od
 tow er
 investig ated
 over l
 sen ators
ra h
Th ree
 C old
 Canad ians
 h ub
 w ise
ite d
 m art
 appl ies
z one
id en
 form ula
ie re
 Stand ard
oll ar
 Egypt ian
 Christ opher
am ine
 inev itable
 uncertain ty
bre aking
 prov ider
 pain ting
 contin u
 mod est
l arge
 influ ential
 l ens
 dest ination
 Que ens
 M ap
iz ations
for ward
" ,"
 ch ips
S upp
 all y
 inf ection
 susp ic
be ing
 d imin
u ating
le ading
r c
 Un ivers
 j et
 T R
 sole ly
 bel t
 sc rew
t own
o vers
 in aug
 6 3
 ins ist
Y eah
ry ing
 N iger
G ood
 the ft
u ccess
 polit ician
 Al aska
 transp arency
 invest ed
 Play Station
 sing er
 imm une
 Ott awa
 prov isions
ist ance
ant e
 St ock
 hand led
 p y
 uncom fort
amp a
 Olymp ics
 Louis iana
 imp ressed
 in box
 O il
 oper ator
v o
ard o
unt u
 Nether lands
r ition
 ball s
 t ent
il ation
 J ane
com p
 col leg
 Ex p
 sim ilarly
v ar
 lif estyle
 head lines
off s
id al
 bo ards
rif ice
ol as
? )
 Tre k
act or
 K r
 dis abled
ix el
 Stan ley
 ret ro
 oper ated
th ur
 regard ed
w all
 launch ing
 S N
 rel uct
ach ment
 ins ur
 M other
ig e
 Ty pe
s uch
 b ol
 D rug
 kid n
 photograph s
 vol unt
? \xe2\x80\x99
D own
 sa ke
c itation
 ke en
 D a
 det ention
 consecut ive
tr ack
Ob ama
 g ym
 Un like
in ite
or ate
on ing
). [
 Bl ood
 prosecut or
 fil ter
m illion
S D
 prosec ution
ke ley
B r
 su ck
angu age
E m
 conv iction
ut her
 earth qu
 le an
 ro lled
 k iss
ist a
eral d
ar med
 T able
 in ex
 Mod i
 Corpor ation
 Capt ion
t arian
 ne ur
bit ious
 bul k
J o
 Hamp shire
 F O
 m ales
 t ears
 traged y
 ch ocolate
ll or
 po et
 m ouse
 T am
 guid ance
 F ather
 Be ing
 le ak
 Philipp ines
k es
f irst
 Fore st
us on
ass ion
 b ags
 S everal
 Cor p
 rec k
B el
 dest ro
 exam ined
 sy nd
 accept ing
 el abor
 miss iles
 abs urd
F urther
 bene ath
 particip ating
st ra
viron ments
 1 000
 H ans
 neighborhood s
 W y
b es
 Stan ford
 compe lling
 reflect s
 compl ained
 Mar c
 ad ap
 b other
 contro ller
 lux ury
 Victor ia
 Ed it
ay a
 Gr ant
 M orm
l aim
 the ater
 Mar io
 en for
 N elson
 shel ter
 Medic are
boy s
 Cl oud
spe ed
 f its
 Medic aid
 jur isd
as m
 < /
o pp
 post er
 K night
E F
 P a
 cons ists
\xe2\x80\x9d )
 p ose
 signific ance
 po lling
 res idence
 sto pping
 occas ions
 Fil m
 b one
 Tok yo
friend ly
 Rub io
 wire less
 real istic
 exc use
 L ocal
Am ong
E ach
 Im m
re qu
 C as
 Ch ron
m ons
 t ension
 G ard
 accompan ied
 see ks
 back up
ot ion
 mand ate
 H ad
ous es
 the oret
ell o
 Contin ue
bl ock
 ass ists
 poss ibilities
 W inter
 K a
f ish
 bet a
 accus ations
 S port
 adv ent
 cook ing
p ing
 Ab u
 C R
ia h
 Ch ampions
 supposed ly
 in hab
 Snow den
 emphas is
 fin ishing
 D al
 Qu est
 sust ained
Per haps
 Mal ays
M on
 beat en
 b ump
ite ment
b en
 B ir
 P ear
 d ressed
 a wards
 project ed
ism s
 S EC
 Not hing
i per
 t orn
ust ing
c at
 innov ative
 Every thing
r in
P I
 M ind
 affect s
 pol ar
 prevent ing
 construct ed
 Fl ash
ber y
 long time
Follow ing
 g ut
AT ION
 S ection
 fuck ing
 V in
 er u
 g arden
 Ab d
 3 60
 Organ ization
un a
 oper ators
 f ed
 So ft
th al
 Fin ancial
il st
 dr um
 man ual
 out standing
 pass word
 mortg age
 Ham as
 ent ity
 rec ession
 N ich
 Py thon
c ott
 w isdom
 N ature
 document ed
 Ste am
 trad ed
 int rig
 I V
 g olf
 Jim my
 speed s
 occup ation
 Kurd ish
 old est
 f ut
k ind
 document ation
 favour ite
 pra ised
 resident ial
 spot ted
 cop s
inc ial
cent ury
eg a
ug by
 reven ues
 Th ird
 lay ers
 Comm ons
 wal ks
olit an
m n
 interact ions
 Patri ots
 sur ge
 7 7
ch arg
 b icy
B ar
 aw ful
r ons
 the r
 D om
 pan els
 calc ulated
 Sc he
9 1
 inf ant
s ize
 circ uit
io x
i ated
 experiment al
\xe2 \x82\xac
 renew able
 autom atic
c ular
 C L
 myster ious
 d irty
any ahu
 6 7
 L ad
 tr ains
 th reshold
 Other s
 t ale
qu es
 N ash
 K al
 6 8
 deal t
 R h
 6 1
 review ed
l ied
 pain ful
 gl obe
 C itiz
le ted
 co in
M art
 tri ps
 Tr ue
 Air port
P s
 F le
 Way ne
ect s
 cle ared
ne g
 earn ings
~ ~
ard ed
 cross ed
 E nt
om er
 administ rative
 conven ient
 graph ic
 r iders
 E mer
 l ady
 N ik
 liber ty
 r anging
ut o
 b izarre
 p our
 it er
 or g
 he s
for mer
 B ah
 displ ays
 icon ic
 en vironments
 rob ots
 mother s
d ing
 host ing
 am bitious
 198 8
ow der
 pred ec
 des ert
 sec ular
be at
 sent iment
 Mc Donald
B en
erg uson
 P ir
j amin
 m m
 conver ted
ve r
 un re
 Cl imate
 tiss ue
 Mur phy
 L arry
 t um
 A FP
 drop s
 F OR
sh ore
Ch ina
D id
 De ep
 explo it
 De an
 Sum mer
On ly
 creat or
 res ort
 Red s
 s ons
 address ing
 an ch
 V ar
 S in
 safe ly
 h iding
 att orneys
\xc3 \xa5
 devast ating
t wo
w ords
 sp ray
 sleep ing
u ably
 cross ing
 p ension
t it
 restrict ed
 arrest s
 w ore
 scrut iny
 f er
 unfortun ately
 S ac
 bur st
 E C
 libr aries
put er
 depart ments
 murd ered
 compet itors
ens e
 wh is
 al ign
 contain er
u j
o j
 avail ability
 newslet ters
 D rive
 fil ing
 Sing h
k ward
 adop tion
 N S
 newsp apers
ail ing
 m isc
EM ENT
p in
 product ivity
 to ss
ir s
 re ign
 build s
b et
 disc rimin
 pregn ancy
cel ona
 over night
at ter
 indic ation
 appear ing
d ev
ph an
oy d
 publ isher
 ear ning
ight ing
U D
 comb ine
 view ing
 d uties
AS H
c ount
 Man ning
r n
 f ishing
 reflect ed
 T an
is ode
 t u
o op
 uncomfort able
er d
ar ians
ag u
 Mag azine
 reg ret
ari os
 m unicipal
 Further more
go vernment
mb ered
N T
n amed
 Wh it
 N ative
d ata
te ch
are r
 hor rible
uck er
b ably
 chemical s
 rel ie
 an onym
 c ave
 separ ated
May be
ac cept
 sophistic ated
 r ivals
 re wards
 F ig
 v iable
 deser ves
W orld
or ia
 pr icing
 act ed
 Ph ys
 W iki
 rel atives
 N a
 M and
 win ners
 in du
 sl ide
 re cept
 Mad rid
 prepar ation
 equ ipped
 r itual
 Ch rome
 limit ations
 198 4
 complex ity
 among st
 Ron ald
ern el
 mechanism s
e velop
 pe er
 comm od
 param eters
 F ederation
 fire arms
 b ip
les h
 car rier
 to b
vers ion
 N az
 suggest ions
i ors
 delay ed
 HT ML
 expl oring
 me ets
win ning
 tou g
 198 6
 co ord
 Tai wan
 light ing
 cur ve
 start up
ab a
em it
Un fortunately
 celebr ated
 Mississ ippi
 g host
/ .
 ce ase
 ab und
ell er
 inter ven
 quiet ly
 ens uring
 P oll
 intell igent
X X
Che ck
 reb el
ra it
 L uke
b urn
 night s
 In n
AT ED
 collect ing
qu er
m ap
 transl ation
 world s
 det ained
 -- -
 or ange
 McC on
prof ile
DA Y
 be ef
 employ er
sh ot
 D VD
P at
 Le vel
 rad ar
 Coll ins
 S ex
 install ation
Wh ite
 Bl ock
 deliver ing
a very
 co ins
 design ated
 m igration
od a
 deb ates
 ) ;
 pled ge
 Mel bourne
 cat ast
Mich ael
 stere oty
 gr ants
 ca ution
\x94 \x80
 off season
 not ably
TH E
 table t
em in
 bug s
20 11
R O
 them es
 w rap
g ov
n atural
 gold en
 deleg ates
Ad vertisements
 D isc
 cour ses
\xe2\x80 \xb3
 count less
A tt
al id
 Eag les
 witness ed
 grad ually
 Que bec
hy th
 comm ands
 Cub a
 Coal ition
 t ends
 viol ated
 mean while
 demonst ration
 dem o
 psych iat
 Sm art
 C rit
 P od
ac ies
 comment ary
wit zer
 Swed ish
 ann ually
form ance
 Ex press
 for b
 p ending
p ot
 He at
ond s
 observ ations
 th ro
med ia
ath on
 S aint
or i
op les
arent ly
 T oy
\xe2\x80\x99 \xe2\x80
ers ion
 reme mbered
 f ires
 question ing
ren cies
 clim b
f i
 lapt op
 N ap
arm a
 ver ify
 imp ose
 highlight ed
ru p
 repl acing
 cor n
 L ady
 se eds
 cont ents
 h unt
c ul
C D
 pre view
\x99 \xe2\x80\x99
el come
found er
 frust ration
oc ur
 Marsh all
 W ard
 discipl ine
 pat rol
 supp lement
 poor ly
ond a
 com ed
 gra ve
 pra ise
 t empt
 Pe ace
 Ar ts
 bath room
 Pro gress
 P el
s ized
 K y
M edia
 as pir
 happ iness
 expl oration
 gent le
 R ound
 cru el
 L ions
om ach
u ates
 st arter
 prevent ed
 Hun ter
 Bl ake
out ing
 ch amber
 pr ayer
 m ic
 cult iv
 St orm
 per mitted
 inst antly
 ven ue
 oxy gen
 alt ogether
 H uff
ur ities
ude au
Rep ublic
 bond s
 are na
at al
 amb assador
 Be at
 Mot or
. ),
 un l
 con ced
 Ber keley
 disapp eared
 plan es
M in
 techn ological
ug s
 A y
 7 6
 suggest ion
ier re
f ile
 d il
st ring
 Rog er
 part ially
 agric ulture
 O w
h ill
anc hes
 dr inks
 F R
fl ow
 s izes
 incor rect
 protect ions
T witter
 fasc inating
 Environment al
 Christian ity
 Camp bell
 vacc ine
 Hawai i
am an
 Add itionally
it ate
 log ical
 par ks
 H ann
b u
h ol
au cus
 sty les
 supp orter
 honest ly
 ad j
 M as
tt es
 al ike
 L aur
appropri ate
 NC AA
 tob acco
 pro l
 L en
 G ene
 marg inal
 to ll
 sum mary
olog ically
 fle w
 C ry
W ar
 M uch
 Kick starter
 heart s
 adv ised
 comp r
 sing ing
 w ound
Le aks
 appoint ment
The ir
 Q ual
 Congress ional
 For ces
 eth ics
 st unning
es ides
 cap ability
F e
 trans mission
 enter prise
 Vlad imir
ct ive
 Mit chell
 met aph
 Spe aker
 p owered
 Man ager
F S
 react ions
 Ed itor
 ess ay
 elect rical
 c ous
pl ing
 Eng ine
p y
 J en
 st ressed
 U I
 ha z
 T odd
 fac ulty
 G re
st art
 m akers
 Cor ps
sp icious
 Aren a
 as h
 ce iling
 sk et
 der ived
 Re id
 sevent h
 N ame
iv an
 G ab
 mount ains
 celeb ration
 r ice
 press ing
ch ron
 arg uably
 draft ed
 c rown
 dam n
 dep os
 ra id
\xd0\xb0 \xd0
 J ess
 R T
 Or ange
lect ed
o ard
 Im p
 end less
t ra
 travel ed
 compl ain
 B enn
 dr ones
 S essions
 Commission er
l ast
 Ox ford
T IS
 in eff
 R ow
 Br us
g ments
 aw kward
 bu nd
witzer land
 app lying
ore r
g al
 Wat son
 sac rifice
 accompl ished
 shoot er
( '
g ary
 we aken
 bub ble
ll i
ult s
T ake
 F lynn
 ep id
 met h
 mechan ics
 assum ption
c ode
on ia
augh ters
im s
 advoc acy
 c ats
B L
 host ile
 g reet
 bre ach
 reveal ing
ut t
en cer
or ical
 respect ive
 fr act
b ie
 scr atch
hand ed
 Mod ern
S everal
st orm
H ave
 expert ise
 Dak ota
 dev oted
at oes
 Park er
 B aker
 Ind ians
Sec ond
 pun ish
 circ les
 an arch
 strong est
 R ap
writ ten
 focus es
 Ch all
 sh ocking
form ed
 cal endar
m are
 aud iences
 l one
I O
at in
 citizens hip
 K as
g i
 buy ers
ag raph
W S
 confirm ation
 Medic ine
ue z
um ing
 tr ucks
 sw ord
 7 00
 partic les
 fr ank
 acqu isition
 conclus ions
id th
 comput ing
 sa uce
\xe2 \x84
 Law rence
uer to
con nect
 unnecess ary
 direct ors
ah a
B re
 ro d
 line back
D ata
 pen alties
 D ate
 dec or
 sp y
v ol
h alf
 long est
 E D
 respond ing
 S E
act ory
m atic
li ver
v ious
n or
it ivity
H ist
and ed
 F ind
um m
 B art
 bit ter
M M
by n
 st ir
 Res p
b rew
at re
oc us
 histor ically
 ent ities
 Mor ris
 D or
 ad vertisement
 inter rupt
20 10
 add iction
 H us
 y ard
ro c
M en
 be ars
 pl acing
z es
 contribut ing
 bound aries
 qual ify
 F erguson
 Sun n
 understand s
 comp osition
 d uration
 Tem ple
? '
 quant um
 Hot el
 convers ion
 Y ang
 sh ake
 frust rated
j an
\xd9 \x84
ro d
 coordin ator
 Leg isl
bor ne
 oper ates
m art
st an
 orient ation
 hack ing
 Saf ety
 P rom
 Bar celona
s ign
  ..
 c am
 st un
 R oc
 Rec ords
G iven
 pri est
 femin ist
le ments
 His pan
ac ular
 Jac ob
N G
 198 7
B ig
 dist ant
 motiv ation
 fast est
mind ed
and y
 t ar
 gro cer
 pain ted
 I an
 Net anyahu
out heast
 ped est
 F CC
lim inary
 R ain
 n ode
 pop ul
L a
 U C
 d ensity
PD ATE
 overs ight
 R y
 tun nel
 experien cing
IS T
S et
 contro lling
 count ies
 m ild
 6 9
 saf er
f s
M ed
 S ong
bo ards
 P ur
 197 9
 v ague
b les
 t ill
 div ide
k m
 F if
 Sw iss
 trans formation
 direct ions
 rece ives
\xe2 \x94\x80
ast ed
 sent ences
 imper ial
 M A
\xc2 \xb7
F igure
 p or
 u gly
le ton
 sup rem
 illeg ally
 C os
com ed
 C a
 prob ability
 int ensity
ab ling
 comp osed
 enjoy ing
 Abb ott
 he aven
 d ign
s upp
w estern
 res ur
 S ide
 mand atory
spe cific
ac er
AC K
 conserv ation
 achieve ment
 g aining
 Rem ember
 Bloom berg
In ter
E uro
 ins ane
 H end
 Again st
d ec
 agric ultural
ry ption
 bal anced
 l ung
 condem ned
 st omach
 198 5
 dist inction
 Bl u
 print ing
 p ione
m id
P ar
 L ie
 proto type
 emer ge
 B eng
 Bl og
 w ings
 space craft
z o
G M
 invest ing
 accept ance
\xc2 \x94
 tou ched
 R ice
 t une
 z omb
 to ile
 Te a
 initi atives
 B uilding
 exch anges
\xd0\xb5 \xd0
 sc ary
 p ays
 l yr
au c
 D J
 ide ological
 p ink
ay ed
m other
or ient
g roup
 scen arios
idd ing
 Be h
 f illing
 manufacture r
H ar
\xe2\x80 \x8b
 Ben jamin
 T ampa
 Ste in
he alth
 Ev ans
 E lection
 ser ial
 inf ring
 const rain
lam m
 rot ation
 Mc M
 respect ed
 K u
 K l
w hen
 D raft
 press ed
 non profit
 pe ers
 acqu ire
b ecause
 oper ational
 c ake
 inc omp
 crop s
\xe2\x84 \xa2
 l anes
g t
abet es
in itely
UT ERS
 La ure
 high way
 treat ing
umb led
 prior ities
 subsid ies
 explos ive
 anim ated
 res igned
IC E
 e ars
ec onom
 G a
 l un
 g est
 sl avery
 difficult ies
 comple tion
ock er
 Ar ctic
 m amm
i ary
 is lands
 Co hen
 \xc2 \xa9
 M obile
 free ly
ul pt
w he
ust ers
 chur ches
 Ch ance
ol o
 sh orter
 fr ight
z b
 res ume
 form ally
 appro ve
st ory
 reserve s
d eg
 des ired
ch i
 qu otes
 rif le
 respond ents
 ex em
 particip ated
 R io
 Br andon
ock ets
 b ones
 crowd s
 discl osure
 F igure
 R ail
th ink
 A wards
 19 30
 sh ar
 human itarian
 worth y
 Te xt
r idge
 volunte er
 s her
pe r
 mechan ical
ic ut
 tut orial
val id
 inte r
 \xc3 \x97
 cle ver
 sec ured
 re hab
 h ier
o ons
 jud icial
s ky
 rum ors
b art
 att ributed
 cr ude
r t
ow ell
ch arge
 S aints
 con j
\xd1 \x8f
 mon etary
 deliber ately
 Cent ury
( );
ict s
or ph
 cult ures
S er
pro duct
 anticip ated
 ro cks
 in hib
 flex ible
 econom ies
 N eed
ud ge
 McCon nell
 inc ons
 b ass
r ane
im ens
K ey
is en
 R aid
at ile
 K yle
 exp ed
 gr ateful
 elder ly
 consequ ence
 j okes
 her itage
 pan ic
 teen ager
 dis par
 spread ing
 b io
 inter rog
cont rolled
 disp os
 flex ibility
 aff air
 to ken
 t el
 Sm all
 altern atives
 ch ap
 F arm
 M D
ici ary
 T alk
Wh ich
 z ones
 n aked
 decl are
 Circ uit
 P ok
d rop
c rat
 vir al
gl as
 F ro
 abs ent
 K erry
az y
 attend ance
 advant ages
 Ter ry
 trig gered
 bu zz
 Albert a
B est
 T a
iz ard
 techn ically
 re aches
 S witzerland
 t ensions
 p osed
 Ch ap
I E
 B uck
 det ected
 fin an
 G erm
\x96 \x88
 inst inct
 kn ocked
VER TIS
 design ers
 distur bing
og g
ur i
ll ers
 prev al
 E arly
R T
 M itt
 T reat
 Art icle
 pled ged
 T un
or ig
d i
 Brus sels
 instru ments
 I C
val ue
 s ends
A ust
 satisf ied
 Post s
 process or
 w rapped
il ateral
 M ov
iv a
are ttes
 exc itement
 f are
 green house
at ive
 shif ted
 equ ity
 break fast
 flu id
 flo ating
 do se
ne ver
 remind ed
E ng
 harm ful
 P uerto
C urrent
inc inn
 Part ners
 transp arent
 out s
 tr apped
 Kir k
 rep ly
urn ed
 wel comed
 n ull
 app eals
ul ator
 Camp aign
ation ally
 Frank lin
N orth
 har vest
 res olved
 su itable
 legend ary
 Ant i
 mag ical
 br ains
 ref using
 7 3
 I ss
 fit ness
b est
 avo ided
 C row
pr ising
 gr asp
 port fol
 ident ifying
 7 4
 Gr ay
 decl aration
 announ cing
 rec y
 ab ol
it ably
 inn ings
 8 8
 Am b
 B ab
on er
 l ib
 Buff alo
 h orm
 Lyn ch
 m ole
f ox
 ste ep
 prov incial
ine ering
 Commun ist
 condem n
 ha bits
 rus hed
e or
oc ate
 imm igrant
 mut ual
 em pire
 hat red
 Bar ry
st ock
P ress
 M aine
 hy brid
 assum ing
 minor ities
 optim istic
 hope ful
 indic ating
 O d
 G er
ra ham
 edit ors
 excess ive
 fro zen
 wh ites
 Phil ip
 bel oved
 brow s
incinn ati
 tempor arily
 conduct ing
f old
 V ery
ver ning
 presum ably
ank ing
 trust ed
 imag ination
 deploy ment
 edit ing
 Dou g
 supp ose
 ear liest
 ass ured
ul ates
A V
s ki
 Christ ie
 st ocks
point s
se ud
 tend ency
 pen et
 imm ense
 Pr in
 N atural
 Rog ers
af i
 bar riers
 G PU
l as
 M om
 Pro t
N ever
 tour ists
qu ality
 dec iding
p owered
 head line
 Al t
 throw s
 cast ing
 B ears
Th rough
 wor ship
 f est
 comp os
 r all
th an
 inf ected
 Tr udeau
ar ound
 J ets
 m ixture
b age
 ve gan
 social ist
 F un
H aving
 spark ed
 wind s
 butt ons
 wa ited
 g rip
 dam aging
l ib
 struct ural
 Occ up
 grab bed
 War riors
 P ed
iff erent
 defend ers
not e
1 10
 colle ague
 A w
 d iver
 colleg es
 crypt ocur
ot ton
 un ity
 athlet ic
V ideo
 arm or
ol k
 tr ash
per or
ig hed
 plan ets
 H P
 O scar
ig ers
 be ll
 cart oon
greg ation
. ."
 sc rap
ne red
 Ch uck
ors es
 l ake
au kee
 D E
ous ing
 Br ady
 parliament ary
 G arden
 f ru
 Jeff erson
 compl iance
sel ess
 soc ieties
 J e
 B ou
f il
 purs uit
 Liber ty
 dis g
 wh istle
per ial
 click ing
 a uction
L ink
ab il
m aster
 Gu ide
al og
b ig
 tradition ally
 B h
 att itudes
roll er
 surviv ors
 hum or
 approach ing
 wid th
F ree
 n ick
pl an
es is
 7 8
 ex ports
 res on
 Columb us
 Turn er
enn a
 Wik ipedia
w al
N EW
Cl inton
 H ide
 legisl ature
p ace
 Is lands
 bar rier
 Ke ith
 ch ampions
 dec ides
 purch ases
 m asc
V al
ac ent
B R
 D omin
 pure ly
 lif ted
 det ain
 ess ence
t ics
 sec rets
p ublic
 Sh an
 Cor byn
ruct ive
 purs uing
 text s
 observ ation
est one
r g
 U ntil
 Har vey
 Mor ning
T om
 B und
 in sect
 there by
 f ont
 eth ical
 rec ount
G ame
be it
 under mine
 w ishes
 t ang
 J u
 ur ge
 bl ess
 grow s
s ur
 D ub
arent s
v ation
force ment
AD VERTIS
 E rd
st ore
 regul ators
 C rown
 f t
IV E
T ION
 off set
p op
 Ch o
 meant ime
 Y ahoo
ur red
ur se
 h oney
 don ated
c s
 C orn
 t ong
 S ep
 econom ists
 liber als
A nt
 l aser
 0 1
 treat y
 met ab
 ex empt
 7 1
w aukee
per hero
 remind er
 n ons
B et
 succeed ed
 a est
 p ist
 rom antic
 bott les
 passion ate
 Nor way
 fl ip
 hack ers
 fail ures
 over d
  vel
p ath
 WW E
 out er
 emot ion
 Un iverse
 W orks
icial s
 Fant asy
 P ap
 ( )
 break down
 E V
aren thood
 M M
 M oney
 E X
 ident ification
 fr action
 Mad ison
 F DA
ple x
d ig
 Cam bridge
back ed
 t rop
 adm its
 sac rific
 divor ce
 per mits
 sens or
 arbit ra
 R aven
res pect
 decre ased
\xe3\x81 \xae
s chool
 D NC
C NN
g ian
own ers
] :
 exec ute
r ained
 gener ous
 after math
 K arl
th a
 squ ee
 wal let
 comp ly
 draw s
 8 2
keep er
sec ond
U M
 t at
 comp aring
s ource
 unfortun ate
 E ss
 arri ving
 ret reat
 fin ancing
 act ress
vis or
is ers
 dis orders
 str ain
 Ark ansas
 var iation
 sl ave
 M ilitary
 enh anced
 Wiki Leaks
t ail
 feed ing
 fem ales
ere r
ount ered
 Rod rig
 E li
rop olitan
 un h
 ver dict
 helicop ter
 account able
 G host
aw s
 conclud e
D B
 Gu y
iz able
 Dep uty
 cre ep
 F isher
op es
 Rob in
 S M
 RE UTERS
 che er
 treat ments
 batter ies
 N ort
ie s
ad vant
 J ake
o a
L Y
 Ne il
 Mem orial
 U RL
 pre ference
S ch
 Connect icut
S outh
 contact s
 s illy
 last ed
S y
 mass es
 Pol ish
 embed ded
 Commun ications
 comp ound
 sequ el
 retail ers
 correspond ing
 W a
 M ission
 destro ying
 lack ing
 d aughters
g iving
ig ma
 Ty ler
N Y
 rec onst
 wond ered
d irect
 capital ist
f ive
 d ys
 enc ountered
 econom ist
\xd1 \x8b
 re un
 R oom
 am pl
 vert ical
 licens ed
 wa rfare
F our
 I RS
 K rist
 E mb
 Th under
l en
 found ing
 Venezuel a
n ormal
on i
 c ub
 sm ugg
 ag ing
 Sc ar
 Mar ia
ir able
m outh
 h ill
 statist ical
 gif ts
h ave
el ed
in ning
 sl ower
 adv ances
 Pakistan i
are st
 gra vity
a fter
 f ierce
 Conserv atives
 care ers
elt a
accept able
 stab il
W ork
 Spe ed
 198 3
 vill ages
ard ing
 intent ions
 organis ations
 P i
 separ ation
 Down load
Us ing
 king dom
 author ized
 Ad vent
h aul
 und ers
 count ing
 Luc as
 tr agic
 go verning
 warn ings
 c u
O G
 dis pro
 Play ers
  \xcf
 Stud ios
 198 2
 S alt
 Sus an
 far ms
 diagn osed
 commission er
 Mer kel
 taxp ayer
im age
 Spir it
it bart
ut ical
 lobb ying
 ed ited
 dem ol
air y
 aw a
 al ph
 transform ed
\xc3\xa9 s
 clean ing
 stre ak
 suspic ion
 ele ph
F ig
 H ub
 l ip
 Holl and
 contin uous
U E
 C z
ank a
it ative
 b oring
 B os
 c odes
 Pri ze
 cons iders
 Sci ences
 mill enn
crib ed
 screen ing
 gam ers
 St ars
 cont am
 dam ages
ard less
 ten ure
 A th
 de ce
ol er
 Th or
 N av
writ er
ear chers
 Br and
 incl usion
 f ib
 fun eral
ol ine
 cl uster
 f ence
 Z h
 a ired
 inst ruction
St art
ank ed
 K le
 traff icking
 fe ared
\xe2 \x88\x92
her ic
O s
 s our
 don ation
uss ion
 P interest
ill o
 work place
f ly
 inv ite
 D anny
 cred ibility
 T D
 te ens
 mon sters
id ays
 collaps ed
 D est
 ' '
 just ified
S ign
pp y
. :
 he nce
ham mad
 hypot hesis
ip h
claim ed
 n an
 su spicious
 den ial
 organ izing
ad ows
 isol ation
 The atre
 : :
 gr ace
ue ller
 Morm on
 c ort
 With in
 sp awn
in ance
 boy friend
 ste am
 novel s
 civil ization
 wrest ling
h ome
 ur ging
 inter ference
 inst itutional
 doub led
 Islam ist
 Pet ers
\xc3 \xa3
 th irty
 real m
 mag netic
. \xe2\x80\x9c
 r ib
 belie ving
 exp end
 out right
v it
 soon er
 ev angel
ch ar
O rig
 ind ict
 benef icial
 br anches
 dec ks
 cry ing
 comp iled
 su ed
 recru iting
oll ah
 m ock
 educ ated
 en ables
 le verage
 inv ented
ck er
 rus hing
ool s
C ap
 elimin ated
J an
 r hyth
co ins
op ard
 spons ored
p ur
A h
ace utical
 unve iled
 tra its
 be ers
 Charl otte
 Ub untu
 Stud io
l ive
St ud
 C incinnati
 routine ly
 ple aded
D ec
 tem plate
 B ash
M et
 p izza
 K am
ll o
ADVERTIS EMENT
 lab els
 B L
 eval uate
Ref erences
 d umb
H ill
 o x
 solid arity
 ag rees
 tem ple
 Lt d
 breat hing
 album s
 For mer
Whe ther
 med ian
 l au
 Brad ley
rodu ction
 lay out
 disc our
 Pr inc
D E
 H ills
 Gl ass
amp s
ur able
Gener al
 shif ts
 incent ive
 direct ory
 Le af
J ames
 C arson
 entreprene urs
 B uy
 F el
st age
 v ibr
 Hind u
 magn itude
M al
 jump ing
ast ically
h um
Is lam
 C ass
 smart phones
h al
ul ative
 O liver
\xe2\x94\x80 \xe2
 C ut
au x
A lex
 compar able
 clim bing
w idth
 Indones ia
 arrange ment
 whe els
ir k
 path s
 termin al
t able
 ult ra
 pil ots
 d irt
 midfield er
 incent ives
ess ional
dri ven
US A
 spec ified
 except ions
 adequ ate
fe ld
 sn aps
 coc aine
 psych ology
 pe oples
ord able
 pre liminary
 c ents
 Sen ior
 A B
 L ED
arth y
 part ial
 Mc L
 gl ob
 Ver izon
200 9
 mon op
 Ver mont
 P ence
 scream ing
re nder
 lyr ics
 m erc
 vis a
oc c
 B JP
 transl ated
 firm ly
l ie
 un st
 ch ains
 Sol ar
 Trib une
 introdu cing
 gen et
 reg ards
G od
 connect ing
 counterpart s
 ac res
j ar
 cr icket
 J oy
 b ust
an ium
 G onz
 F ab
 appeal ing
amb ling
un ct
 me als
 Friend s
d ad
W A
 am end
1 20
 un rest
 Count ry
 wild life
u cc
\xc3\xa9 mon
 d ivers
 S ox
 T ob
 trad itions
 threat en
ian g
 p upp
 creat ors
\xc2 \xa3
 vac ation
t or
 sens ors
 like lihood
b ull
 Book s
 determin ation
O V
Ty pe
 tri ple
 comment ed
 conv inc
 an ime
 tr ace
te es
M ake
umb ling
 match ing
c end
 count ed
  \xf0\x9f
 bet ray
iv ic
 prec ious
 Prof ile
res a
 P AC
 to y
 pl aint
 Belg ium
\xc3 \x97
 motor cy
 sc ulpt
 par agraph
 trans f
ri en
 she er
 Leban on
 invest or
 le agues
 kill s
 endors ed
 licens ing
 accur ately
 Ar thur
 C her
N ET
 tw ist
 shif ting
Russ ia
 AM D
ias m
 N ixon
lud e
 Cow boys
 B Y
 disappoint ing
at on
 avoid ing
 comp assion
ate ur
 10 1
sc he
i ots
 fold er
 j ew
 gr ain
 prohib ited
 19 20
 Brazil ian
 G arc
ack er
ugg ed
p se
 Argent ina
 work force
 account ing
pr ing
U PDATE
 R ams
 sp are
 N in
 H unt
 proceed ings
 n it
u v
 Univers al
 f ict
 Eb ola
 r iot
 length y
 sl aves
 We iss
 Polit ical
S M
ri ving
 dub bed
ah l
 in mates
 ment ally
b ling
 sh aped
 fundra ising
 over look
 touchdown s
 celebr ity
ur l
O ct
 198 1
oc aly
ale y
 mar ine
 ind irect
H D
 willing ness
ke es
 d ivid
 Bro s
aff e
 she d
OS T
 int u
 severe ly
ul um
\xe2\x80\xa6 \xe2\x80
 gener ating
 establ ishing
if ting
G reen
\xa6 \xe2\x80\xa6
 should ers
 negoti ate
 rese mble
 Ser ge
 implement ing
 p owder
 renew ed
Euro pe
 Fin ance
R ich
red ict
W est
 R osen
 consum ed
 swim ming
 b ite
 creat ivity
 Q aeda
 rel ating
J ack
 se ctors
v als
 fire f
 certific ate
 Gl enn
 Ph one
\xc5 \x8d
k g
 assum ptions
 7 9
ss on
r ament
ubl in
  \xd8
 M ort
D ay
 interact ive
l ash
S ometimes
S ON
ios ity
 T ell
 P L
 trad em
 G ates
 accomp any
ull ivan
 obser ve
 aver aged
 h ij
 ref lection
H igh
iox ide
 bra ve
 sa il
RE AD
 roy al
 M ust
\xd1 \x8c
 dis k
m ain
ant o
 An im
\x94\x80 \xe2\x94\x80
 affect ing
is ible
R ober
 L ane
d ays
out ube
 film ing
 wor n
 black s
 fol k
ch a
at ers
 Ar men
m ines
 ind igenous
 earthqu ake
 y e
qu al
 p ub
 subsc ription
 t ub
 B ond
 consult ant
 mount ed
 adapt ation
 clin ic
Ch ris
 det ection
ol utions
ak u
 An ne
ro se
 compat ible
 Mar co
 Mil waukee
as i
 rep ublic
 Cl ar
ac ious
eng u
 rec alls
ect or
 I l
olph ins
 fu els
au er
B rit
 cor ners
 1 30
 special ist
 K ind
 E c
 High way
 esc aped
 di abetes
G erman
 wood en
i ology
 196 7
 adjust ed
 M ason
 tri umph
 predict ions
 C elt
 sl ip
oot ing
 problem atic
 less er
 N ex
 ad mission
 liter ary
 far ming
 A ve
 trans cript
 B E
n ik
 mar ry
 m aker
 laws uits
 aggress ion
 Bl ues
 orig ins
 Col omb
ell a
ett a
 C reek
 he aling
in os
 H um
 aud it
pie ce
U I
 contin ent
 Bull s
 tr ap
 Germ ans
 S i
 h oly
 Dou glas
 R C
 desc ript
 where ver
 music ians
 res et
ec hes
cl osure
W H
 Gold man
 v on
iss a
 \xd0 \xbf
 B B
j e
 under way
 1 10
 mort ality
 Re ading
 eval uation
ne ath
 p ants
orn s
as a
 ab used
 Gall ery
 vulner ability
 bankrupt cy
 su perhero
 del ays
et ing
 P arenthood
 le ather
bl og
m i
 sh ore
 independ ently
mun ition
RE L
 ve to
 sc hed
oca ust
 sk illed
Russ ian
ig nt
W rit
al ph
 tim eline
 Sp ider
T or
 le aks
ili ation
Mus lim
 inter cept
 resign ation
 in ch
 su its
ail and
 w reck
 cy cling
 S W
 Bron cos
 dark ness
act ic
 organ ize
 sw ift
 V A
 St re
 18 0
 Super man
ib ilit
 sher iff
 Bern ard
 le af
ather ine
ra pe
 after wards
he w
 S or
 se iz
P N
 support ive
lev ant
mar ks
 shoot ings
es ity
 S omething
 in appropriate
 J oh
 form ing
 19 40
 laugh ing
ah n
 behavi ors
9 00
T unes
se lling
iss ance
umb l
 altern ate
ble m
 Int erest
light s
 S ad
 Is a
 un anim
 test ified
 reb ell
 196 8
ab ul
 pract ically
ugg ing
 Bud get
 broad band
 D M
 thorough ly
 cr ashed
 ins ists
 un e
 teen age
 L ock
 b ind
 dis advant
 T ry
 s ie
 labor atory
 pre st
 doct rine
row th
 John ny
 enc ryption
 Ex change
erv ation
 cons olid
 Al f
 Vik ings
 loc ally
 k ernel
 out break
bl ack
Americ ans
 exha ust
le m
 G ate
 off shore
 sound ed
ke ys
 exp ose
 ap ology
ur u
 Q B
et e
 Re ed
C OM
 out fit
IT Y
 colon ial
ri el
 M ember
 autonom ous
\xc5 \xa1
 corpor ation
i op
 cost ly
un s
dis play
 pro x
 ne at
 Sp encer
 photograp her
 gr ay
 analys es
add y
 kill ings
C ity
be an
 pred omin
h or
 demonst rations
S uper
ill ery
f our
 A A
 L iving
 int end
 chart s
 reason ing
 class ical
 dem on
 ed ges
 mob il
 Palest ine
ir i
 attack er
 W R
ap y
 veget ables
 c m
 he d
 Se ah
 mat ched
 purch asing
 lect ure
 emb assy
 Ag ree
 c ra
 inf er
ID S
 swit ched
lement ary
 K och
 loc als
 F at
 Wal ter
 D iam
 l ap
e em
 r ated
 oblig ation
fund ed
oc ity
pro of
 Un it
 gar bage
M ike
 stat ue
ab ad
 System s
 straight forward
 god s
 elabor ate
 bus es
 L ess
 M erc
it is
 inter f
\xc3\xa3 o
u um
2 000
 fl owers
 territ ories
 portfol io
 197 6
 B ased
 Bet ween
h is
ocument ed
 inf amous
 tra uma
 L oad
 Michel le
 unf old
 o h
 or che
op ing
 air line
ion ed
oub ted
re ach
 h alt
z i
C R
az ed
 T ory
 priv ately
B it
ignt y
ph p
cc a
) (
 Em ploy
 M MA
 s isters
 deal ers
 bes ides
 Hom eland
Every one
  ^
 A qu
 pe pper
S uch
 l oving
 f ame
 frust rating
 accommod ate
v iol
 S el
 Mu hammad
 ath lete
ik ing
 med ication
 for ums
w er
g el
 o d
 197 5
 n uts
\xe4 \xb8
 att ributes
 Den mark
 V eter
As ked
A v
 S oul
 B uild
ro lling
 he ter
 Com ics
 G ear
 rank ings
n ames
 clos ure
ort ions
 lim iting
 mod es
pe lled
 strik er
n esty
 sear ches
 8 1
 s ink
sh irt
 imag ined
 Cal gary
p rom
 withdraw al
 d ated
ig a
 e ighth
ic he
 qu ery
writ ing
 9 8
 effect iveness
 L uck
 H em
 st ays
 Br un
 obser vers
 Sub scribe
 sp ill
 int ake
 m ph
 N umber
ibilit ies
 d ioxide
 car riers
 Sh adow
 W ATCH
A K
 enthus iasm
 dis m
oth y
 gr at
 unc ons
 con vey
 wh ilst
 mis leading
 197 3
 Rel ations
 publ ishers
 measure ments
 H at
 Move ment
 substant ially
 nom inated
ul u
 histor ian
 Har rison
 str ings
 K el
pe ople
 imp ress
 P ere
 list ing
 Conf eder
ov ic
Art icle
 qual ities
 G PS
 delic ious
 B uzz
\xc2 \xae
B ay
 respons ibilities
 d angers
 exam ination
 lock er
 hung ry
 diagn osis
 J a
 d ash
 ple a
 Pal in
D oes
 h ood
 d rought
 ex agger
 P T
ro ots
 R ace
 w and
 discl ose
n ational
 Te h
 A CL
 H ud
 rev ised
 rel ies
 diff er
 inev itably
\xe2\x80\xa6 \xe2\x80\x9d
S emit
 blood y
 mem orial
 vol umes
 Up date
 ign oring
 c her
 R ico
p it
min ation
 loyal ty
 8 4
iz ont
he lp
 vari ations
OR T
 shut down
 maintain s
 Soft ware
 ent ries
 Carl os
 am munition
 197 2
Look ing
 symbol s
 Bl air
 W oman
 p orts
 8 3
Ag ain
 your s
 friends hip
n en
ins ula
y d
art s
 p ile
 class room
 c od
w ear
 al tered
 dem ographic
 ag greg
s u
per ity
 occur ring
 phot ography
 Vill age
 A my
L ife
 D ennis
 trib al
 qu ad
m os
ol an
 algorith ms
ING TON
 former ly
 redu ces
 fundament ally
 brief ing
u ced
D ep
 fulf ill
 me g
 M i
 inhab it
 h orses
 Plan ned
ential s
resp ons
 P as
 rap ed
h ole
 celebr ating
 ves sel
 hero in
 Brook s
 desper ately
art isan
A c
 gall ery
 met res
 Wall ace
 sk ull
 L isa
 mid st
 D R
osit ory
 Trans portation
k h
ft en
 p seud
 GM T
 reme m
 rein for
 b ikes
 disp ens
com m
 de leted
 un limited
 197 8
we alth
 sac red
 sh y
 out door
it ated
 arch ae
 A ld
i pt
 Sunn i
 new est
 H ockey
 decl ining
id ges
 belong s
 P ast
 ins ure
 spect acular
 pres cription
 f iber
 G it
 exerc ises
 ju ice
 express ing
 mod ules
S l
Q aeda
 account ability
h ner
R et
P oint
 Liber als
 sche mes
 Raid ers
 p ipe
 gar age
 Ter ror
R ob
 govern ance
al so
 t ribute
IN E
 consum e
let ter
ur ring
Ind eed
 rub ber
 Ed wards
oc ide
ell ar
 M C
 president s
IT H
 lineback er
 f lesh
 w ip
aret te
 arr anged
 A gr
it ial
 P ick
 ch ase
 sh apes
 fil med
 bed room
put ed
 Pok \xc3\xa9mon
App le
 sol ved
 She l
rem lin
 Seah awks
 a ide
 n odes
ag ging
 re ception
 M ueller
 conf using
 play back
 billion aire
 accident ally
L D
heim er
 man e
li ent
 R ou
 Ch apter
oubted ly
pp o
al in
 b inding
 Jenn ifer
 8 6
d b
C opyright
 l oses
 r age
uls ion
 perman ently
om o
200 8
 to ys
b led
uk i
irt ual
 exhib ition
 W onder
 un le
se mble
 Ser ver
 B us
AR D
 san ct
 Co ach
 Sil icon
 misc onduct
 spir its
ane ous
 w ounds
 med al
 bo ats
 th umb
work ing
 l uc
 fresh man
 L ost
ch air
 F ly
 vig il
 sell s
 pre jud
 9 6
 F ame
 consider ably
 Phot ograph
 demonst rates
 D ublin
 g rey
 R ah
 last ing
 strict ly
 sh ipped
 man ages
on ge
d ale
 chem istry
 Sh ar
 regul ate
M I
 fin als
 milit ant
re ated
 8 7
 label ed
deg ree
 fin es
 toler ance
 t ier
 N PR
 skept ical
 pro c
 sp ite
 except ional
Ph ot
 fan cy
L eg
 Malays ia
 Aut o
 sc ram
 lin ear
ie val
 stre ams
r ong
ung le
 P ad
pe red
 Ch ile
 For um
 Z ion
Pro f
 puzz le
 Ur ban
 St ring
 reason ably
M at
 R oth
 tack les
 cance lled
 den ying
S ur
S an
 J uan
 pit cher
sp ace
A ug
 9 7
 process ed
 G and
 D od
 Her o
 love ly
 V iol
 R at
A uthor
form ing
 mid night
 Res ources
 ret rie
th irds
 Oper ation
 sp ends
 rest ored
 organiz ers
man uel
 mon ument
p x
 un acceptable
 sub mar
 Y ears
 tun ed
 genuine ly
ES S
 teen agers
 qu o
olute ly
 Pal ace
 R ush
 Ar n
 facilit ate
 m ature
A ng
 C ond
id o
 f oul
 d ancing
 T ru
 Representative s
 rel ate
 out lined
bor ough
 ad vers
 Bill y
 autom ated
 oblig ations
 sexual ity
 F ile
 div isions
. .."
 ext ends
 tour ism
 surve ys
M icro
 McC arthy
ex p
T ur
ret ion
 le ap
 i Tunes
ps y
 Th ailand
ou st
 success or
E arly
 C art
E v
ow een
 Ch arg
in ate
eg u
 Benn ett
 spot light
 Sh ield
 \xc2 \x93
 anonym ity
00 1
in ery
 in ability
 defin ing
 ab oard
 M ack
 N DP
w ick
 tw in
 Z ero
 T ill
 Rich mond
 recommend ation
 under neath
 In valid
ai ro
 dr illing
 Sp urs
\xce \xb1
p ic
 gener ic
ri pp
m el
 subject ed
 hear ings
 battle field
 inc umb
 sn ap
pro v
clus ion
 p ound
 Griff in
 G ay
 Cz ech
 se ct
 spe eches
\xd0 \xb2
 consist ency
ap or
 Ob viously
 vict ories
 Bet ter
 G B
 F ast
 Bang l
 Ret urn
 Ch amber
 p iv
 H ope
t ic
 d ive
 n er
 contract ors
 Chron icle
 cor rid
 Se ven
 l ined
 ris en
rane an
 tong ue
cl osed
 n ort
 over haul
d el
 inc oming
c ill
 Com merce
RE S
 ad verse
B ER
 Bre itbart
m ile
 M aj
ai res
 prem iere
 par ade
 sal aries
or o
 F ried
P H
 El sa
 S elf
 trave lling
 Rec ord
 S ay
 Be yond
ed ge
 L LC
 name ly
 embr aced
 Soc cer
 frank ly
w rite
M em
th s
 disc on
 render ing
 So on
 transl ate
\xe2\x80\x9d \xe2\x80\x94
 S L
 F itz
 Tit le
hold er
 m elt
 confident ial
out e
M er
 Be g
 0 2
 pl ates
 exhib it
 confront ed
 196 9
 Q atar
b ad
 analy zed
  \xec
ic ers
 tact ical
 b inary
 def ic
 art if
{ \\
bs ite
 l iability
 Work ers
\xe3\x80 \x82
ier ra
ant i
 em power
 Pack ers
 Hur ricane
 P un
 bureau crat
f eed
Down load
ist ically
O H
 dec is
 Elect ric
 stro ke
 Sur vey
 un ited
 function ing
 g ard
ag ged
 C ape
 con cess
acc ur
 d ot
 arri ves
os i
 B agh
 lic enses
 gu ilt
 r ings
 Cub an
 part isan
 M all
 don ate
 m ate
 back lash
H ouse
 vend ors
 Bry ant
 M VP
 ste pping
 doub ts
 St ra
 Pr int
uster ity
d isc
 H alf
 steal ing
 sign atures
 c argo
 fel ony
 v ib
g reen
ling ton
 I v
 G reens
 grocer y
 cloud s
 S F
 ML B
ming ham
 G as
 j ack
le tt
 public ations
te am
 casual ties
 9 11
 aut ism
 p ale
 m i
 negoti ating
 coast al
IF A
 Stud y
 R AM
 object ives
 9 3
 ment ions
\xe2 \x96\x88
 gl ory
ang o
? !
 sovere ignty
 electron ics
 defend ants
IG HT
 H BO
= \xe2\x80\x9d
 prem ier
 Met hod
 liber tarian
 ind ef
 int ens
 Tit an
M C
 N A
 Ice land
Fr ank
 Sh ah
 AL L
 arrange ments
 Reg ional
head ed
 p ad
EC T
 art ic
 ves sels
ut ing
ick ets
 hon our
 enc rypt
 ac ute
 fl ows
l it
 Def ence
 S ent
C r
 discl osed
 sport ing
 lack s
 fort un
ocrat s
ron es
C le
k ill
 pre season
 necess ity
 S earch
 { \\
 Brother s
T im
 B obby
 u seless
 K ill
 pret end
 out let
 197 7
 cl arity
 he al
 convinc ing
ent ions
 legisl ators
f ar
 catch ing
 T ib
orient ed
 Barb ara
 dign ity
there um
  **
 determin ing
 utter ly
 protect ive
ser ver
az ines
 r am
 tw elve
 c ute
u ity
 stim ulus
pl ess
 legit im
 character ized
 im pe
 bl own
 d ense
 market place
 s lic
 Att ack
 Sh i
 t ube
 spons ors
ter ior
S ports
 theoret ical
 Nob ody
 prop ri
 l ighter
 has h
S and
 R ic
 spe lls
 un ch
AN T
 c ure
 hun ger
Post ed
 Sim ilarly
raw l
W ind
 flood ing
O O
 adap ted
Cl ass
 Event ually
E vent
 Phill ips
om atic
 9 2
uff icient
aug hed
 prev ention
 gen ius
 Fr an
 V i
 C OM
 eru pt
 se am
 Brown s
 Col on
II I
k ens
 switch ing
W ashington
 m all
 evolution ary
ak y
 fore sts
 But ler
 B P
lick r
 en abling
  __
 mus cles
  \xd1\x81
z h
 T igers
 glass es
 comple ting
\xc4 \x8d
um ns
pl ane
 qu arters
 M IT
 197 4
 sens itivity
 antib iot
 O m
 N ag
 M ode
 Bry an
atic an
 f art
 M ul
 Al tern
  ),
\xc4 \x87
 ca res
cast le
 w are
 J av
 barrel s
V R
const itutional
c ost
ant ing
C are
 achie ving
 Sand y
 mal ware
 read ily
em ail
 explo itation
 mist aken
 table ts
 affili ate
 B R
 met a
 murd ers
 Cl ay
b uilding
 co at
F R
 ad min
 ha ul
 he m
 w it
) |
uten ant
 astron aut
 L ang
 Cast le
 B ishop
 equ ation
 list ened
 Ob ject
 jurisd iction
 C u
 deb ris
est abl
out ed
 subscrib ers
 dr ill
 reb uild
a ired
 h ind
 St op
 To o
 Pant hers
 I b
m ins
 Never theless
vel t
 rese mb
cont rol
 trib e
 hold ers
IC K
S O
 Plan et
 spons or
A FP
 l aughed
 O wn
 ext ending
 c ab
 A x
 spec ify
 subscrib ing
' '
 En g
 refere n
 red ist
 In side
 f ond
 bip artisan
 cool ing
 predec essor
 Be ast
 somet ime
 ins ights
l ay
 Arab ic
ri ages
 can cel
 ref usal
 fr ames
 197 1
ott om
 Ed ge
 be aring
M obile
 r ats
 cous in
 Im perial
 finan cially
 e leg
c m
 roll s
 up side
 swe ep
I X
 synd rome
 end e
col or
 not orious
 Acc ount
 night mare
 pers ist
 p airs
 fire arm
 du o
 Pr im
 Jam ie
B E
 swe eping
 business man
 Or thodox
 pro port
 T ar
b ot
 sur pass
 cred ible
 arbitra ry
 a ston
 Aust ria
 W ii
 F L
 attack ers
 B ird
 3 50
fr ame
 hard est
 Ind ex
yn c
 N eg
 mob ility
 m igr
 D awn
 expect ation
 re ct
 N E
 associ ations
re amed
 mem or
pt ic
 neur ons
 Sp ot
 glob ally
 14 0
b uild
 Dou ble
 or al
 domin ate
ash i
am y
 review ing
pro du
U K
P ut
t em
 hydro gen
r one
 new er
G S
rep resent
Con f
 viol ating
 New ton
im port
 portray ed
ul k
ASH INGTON
 sp at
 char ter
 tre asure
 l ately
 TO DAY
 tour ist
 tr icks
 ter rain
 separ ately
 inf lamm
D irect
agon ist
 endorse ment
 I BM
 deter ior
 v owed
 troub led
 Sw ift
 re iter
osp el
 revel ation
\xc4 \xb1
 R achel
 D aw
 desc end
 dis ability
 Sud an
 R ud
am o
 a ides
 8 9
n ut
derstand ing
 apolog ize
t w
 nation ally
 pos es
 nav igate
 bi ology
in ces
 rel ied
 Jul ian
ou g
B uy
 G R
in ho
 Qu inn
iz ards
 settle ments
 was h
 Mar cus
os ures
G reat
 p ockets
 \xd0 \xb2
 art istic
 Teh ran
b one
P ublic
 commit ting
 b atch
 c ache
 g au
ne x
ar cer
p df
umbl r
 B order
 tourn aments
 N at
 Laur a
 C ab
at ched
 phys ician
 elev ated
th ree
ith ub
 st raw
 p p
f in
sy stem
 pers istent
 Well s
U P
 bl end
 Contin ued
 pro ving
 a qu
 short age
 decl aring
 C SS
ah o
es pecially
 pr ay
 Gl obe
ade qu
 ident ities
AS T
 inc on
ian ces
H ub
S R
ar u
 Tr uth
 inter im
 vill ain
 F ish
 Bre ak
 st ark
 F er
 inv isible
 Mach ine
s im
 a ster
 les bian
 viol ate
un ks
 distingu ish
t alk
 gal axy
St ring
 art work
 Ass istant
 grad uated
 var ied
 exclud ed
 al iens
 ca ut
 g i
 over time
 d rown
 es p
 Leg end
 defin itive
 over see
 inter section
 pron ounced
 D ue
am as
aus ible
M ac
 run ner
 kick ing
 N ancy
 anal og
Americ a
ro gen
inf o
 rel ent
 acc using
 p sy
 assemb led
 Cl ose
 influ ences
 ag g
 T her
 Card inals
 m ush
 ren ov
 pref erences
 Nex us
IM E
 pre y
 sub way
 ob esity
 revel ations
N ational
l arg
 J ong
 Lad en
 D ra
 fort une
ernand ez
 lay ing
 bul lets
 Tra vel
" ;
 hel met
 war r
U ntil
mont on
 W ade
 bes ide
 d read
D et
C ong
 Se lect
uc le
 Ne ither
 se al
 risk y
 uns uccess
 vary ing
 trib es
 hand y
 impl ies
ine z
er ving
 sh ower
 Aff ordable
A f
 toile t
 rent al
ose velt
 M itch
rament o
 Cle an
 B iden
 ban ner
 kilomet ers
 re lying
 B annon
 ne ural
 break through
 H orn
 favor able
 L uther
 Wh atever
 Mem bers
 authent ic
alth ough
L ab
 Dr ag
 tax i
 n urse
in is
 diss ent
 Fl ight
 p etro
 Class ic
 T arget
 C M
 analy ze
 Ar c
he tt
 recip es
L ong
 P il
s cience
 reluct ant
y ang
 aim ing
 k icks
 Jo ined
 cred ited
 pat ience
g s
 ins pire
 ur gent
 assass ination
 fam ously
G old
L aw
rit ical
 un aware
 back ers
 p up
rib ly
 J obs
Pl ay
In f
 prof itable
 cl ause
B ill
th ird
 H R
 volunt ary
 fact ories
 subst itute
econom ic
 meas uring
 mass acre
 recre ational
 W ire
 >> >
 sum mar
 F err
ul in
omet own
 ve t
CL A
 pr ayers
as ma
ac hers
off icial
 express ions
 m ant
 trick y
ob i
 min im
 C BC
br aska
 mag azines
 P oly
B ased
 text ure
 cy cles
 p uck
 pass ive
lic ation
 O c
 C ant
 Yan kees
 disc ourse
 V atican
 soc ially
 p ause
 al beit
 Garc ia
 b out
app ro
rn iture
run ner
 und oubtedly
 f isher
 Hispan ic
 star ring
 K remlin
 E ither
it utes
l on
 W inn
 att ribute
Ch ar
om i
EL L
 S A
 pl un
 mos que
so ever
im ated
 st icks
 rece ivers
 crew s
 he ated
 prov inces
 Four th
f ull
 wor ries
 M ans
 Agr icult
 contract or
 defend ant
 intention ally
 under min
 load ing
 hy d
 se min
 preced ent
 mem orable
  ic
O pen
 Pet e
 G rey
 Hol ocaust
 f oster
 Polit ics
RE E
 broad ly
 fit ting
as se
 our s
 satisf action
 C hen
an ne
he nd
atern al
C P
 dynam ics
 blog s
 Pro test
J apan
 L ot
 Invest ig
ur as
 H ait
 l iv
 fac ial
m us
 buff er
he astern
 B ed
 Nob el
 mane u
 De al
 sum mon
 st er
 L em
 N EW
 9 4
 supp lied
 val ued
 Agree ment
 multi player
 Min or
p ound
 initi ated
 Sn ap
 Ph D
 M B
 str anger
 attract ion
 9 1
 A bs
With out
 Hall oween
 Al ong
S H
 ne o
 Al ice
Can ada
 disappoint ment
ort ing
 Sam uel
 team mate
 \xd0 \xbd
 M es
 stick ing
 Ch and
 Work ing
T ex
ore n
 Tra il
REL ATED
 prov es
 sear ched
 Enter prise
h u
all ow
head s
 mart ial
 Bir mingham
 swe pt
 med i
 p ars
 inc omes
K K
\xc3\xa1 n
  q
ast ing
c d
 st yl
 P ath
cer pt
 Girl s
 Nash ville
 un lock
 epid emic
ell ing
 fict ional
 dim ensions
 entreprene ur
 Re form
 Chief s
 broad c
 m aj
 Eng ineering
 N ep
 Brew ing
 grand father
 C our
 Israel is
 In v
te lling
 param eter
F ire
 interpre ted
 E le
 theat ers
 F inn
ah an
 inte rf
 event ual
\xd1 \x87
 mod ify
 domin ance
 flaw s
em ale
 young est
 worry ing
 tr ump
 Com puter
 achieve ments
 contribut or
terror ism
 int act
 S ach
 po le
 D ays
ir med
 w ard
 conven ience
In tern
 S pect
 ar ise
 sub mission
 arch ive
 F an
 K ath
 def ines
 pred iction
F ox
 fin ale
 K or
P ort
M arch
 tact ic
 sur render
 obst acles
 J oint
in formation
 disc ont
est a
 philosoph ical
 Base ball
v ised
op ular
ost al
ment ation
d evelop
 Al b
 mac ro
am bers
 bicy cle
 Al most
 en roll
 inf lic
 pr isons
ced es
un ique
 mal icious
 ban ning
Un like
 reven ge
L ater
l ation
\x96\x88 \xe2\x96\x88
ange red
 nav al
ov ich
 Mo z
int age
 B ear
 what soever
 K ate
rg aret
 G A
 sk ip
 S old
 national ist
roph ic
 entertain ing
 c yn
 Diam ond
 div ine
 K az
 correl ation
l ass
 du pl
 bas eline
m ans
m und
 N HS
 neighbour hood
 over r
 network ing
k n
 she ets
 R ing
 the or
 neutral ity
 g aps
 ignor ance
 an k
ov o
 organ ised
 inter medi
 touch ing
sc ript
amp ed
 concent rated
e very
 tw itter
\\ \\
 regul ated
 consult ing
 R aw
 assault ed
Rem ember
h at
on ies
 Portug al
 opp ression
 le thal
 K os
 r ab
 cur s
 ev olve
c lick
 Col lect
 An imal
 hor izont
 un int
 invent ory
 euro s
 sa ves
 c um
umb ai
le ased
 C ox
the m
 ris es
ast rous
 Pict ures
 design ing
 confront ation
 Hol mes
 Be er
 n asty
J on
V er
 L G
Cal if
 dr ain
ere k
 import s
U lt
 I L
er ting
us hing
 trans mit
 sk i
 Mat ter
 to oth
sp oken
 n est
 Mot ors
 Ro osevelt
 quant ity
 Car ib
 over ly
 crow ded
 G ive
 administ rators
ve t
 mer it
 script s
 US D
 L an
 var iant
irl ines
ok o
se arch
us cript
 inv itation
 Sur v
 As s
 W ol
 br ick
ne apolis
 off enders
 h ated
 don or
 Fire fox
as ures
 se aled
s qu
 commit ments
ch ief
im eter
 b ay
Over all
 PD F
 R PG
abl o
 fix es
 196 5
 remem bers
col m
 w rist
 Hug hes
 Angel a
 cost ume
 Ep isode
are z
 M O
 nav igation
 196 4
ed uc
 N athan
\xc2 \xa9
P erson
gg le
 Rodrig uez
li ers
 G P
 comprom ised
 Y e
## #
 inc arcer
 Pal mer
 Fin land
 absor b
 j am
 star ters
 free ze
 c ord
ide os
ec ules
 A G
l iter
 prec ision
 reject ion
 mathemat ical
 cur rencies
 flaw ed
serv ice
 t ire
 comm em
 belong ing
ic ating
our ge
 n arc
 Sh aw
 Occup y
anc ies
 over th
sh ow
ain ted
 D ise
 cl ash
 pitch ing
 embarrass ing
 rob bery
 hol idays
 pro xy
 un cle
 Broad way
 ab uses
 question able
h ots
 cur ric
 app et
 F oster
oc o
 m ast
bel iev
ment ioned
 present ing
 ble w
 n erve
 Queens land
se en
E xt
 upgr ades
 en v
 dispro portion
 constrain ts
 S ullivan
 ad oles
S um
 Indian apolis
 m im
ri ved
Sm ith
 Ch ase
 rend ered
 infect ions
 stead ily
 Boe ing
 remind s
 a pt
' :
 Dun can
e ep
 unc overed
 pharm aceutical
ful ness
 base ment
 tradem ark
 C op
 b ats
 Rod gers
 cont ing
 ball ots
 P ubl
 E RA
 C ris
ind ex
as ive
 S O
 dig it
W ASHINGTON
 Mont ana
 dist ribute
 opt ed
el er
 beh ave
 hed ge
 out look
orig inal
 st iff
\xc3 \xba
rit ies
 manufact ured
Ke ep
 boot s
 ins ert
 grand mother
 at e
 R acing
V ID
 Moh ammed
OM E
 pack s
 comple ment
 s ab
 back wards
 an throp
 tu ition
 a usterity
j u
 su ited
k now
 K ash
esc ope
ic ides
 saf egu
 per ce
 evangel ical
 L l
 contain ers
 make up
 link ing
 D ut
 prison er
 download ed
F T
st ick
 nons ense
av i
 off ence
M o
iber al
 extrem ist
 C abinet
 Ath let
 thro at
R eal
 inj ust
y our
 ch ron
do ing
 int imate
T ra
 shar ply
 A ven
 prote ins
 cred entials
 In iti
c all
 correspond ent
r aged
and o
Se pt
p ol
 hot els
Sc ott
 secret ly
co very
 col umns
 track ed
pl ant
ew s
 press ures
ul ent
OR K
 inv alid
  \xd9
 land l
 satell ites
 option al
 Ass ange
 hack ed
 bud gets
 qual ifying
 Qu ick
 Bagh dad
 to kens
 l as
 comp ounds
 P ink
D I
\xe3\x81 \x84
 r ivers
S am
s ocial
G en
 pun ished
 who ever
 emot ionally
 pl ag
 surv iving
Aust ral
 inject ion
 sol ving
 c ups
 G ot
iction ary
 ham mer
child ren
G N
 elimin ating
 Niger ia
 cat tle
 aggress ively
Hill ary
 Chance llor
 o ven
 manip ulation
 hor izon
 laun ches
 swe at
 lif ting
 Br ig
\xd0 \xb4
et ition
E mail
 M ine
 S ierra
ibl ical
 met ric
 bo oth
pri v
 subur ban
\xc3\xbc r
 P H
com pass
 Stud ents
 Ale ppo
 Com b
 de lete
 g re
] )
J une
 Jes se
se in
 Pet erson
 P red
 hor rific
 Alp ha
 Brother hood
 nice ly
pr ises
l ocal
 extrem ists
 conclud es
 C ell
 brew ery
er als
 mess aging
 S em
N one
 amb ul
 : )
 h ilar
 Sac ramento
 Citiz ens
 public ity
 President ial
 F IFA
 jo ins
 br ush
 H erald
 recon c
C ount
 compl aining
 Z immer
 vac uum
 prev ents
 Bangl adesh
zb ollah
 prem ise
p os
 Cl in
 dism ant
at isf
ens on
 D A
  \xc5
Up dated
 k g
g om
 advis ers
 B elt
 haz ard
 Cat al
 just ification
 under go
 anch or
 trad es
 r ides
 S ave
ag ain
 He y
ip se
 Leg al
 flo at
 dest ructive
In vest
.\xe2\x80\x99 \xe2\x80\x9d
 o un
 A round
 neighb oring
leg al
 Her itage
 ent ers
 M ong
 pict ured
 transf ers
 Sh in
 M I
 An aly
 virt ue
 ref und
 Ch ip
 troub ling
 Cr iminal
 Col in
 fe as
F ull
iter ranean
 Over all
 acc idents
 cor ps
 N ar
 sovere ign
iz ers
 pur ple
 o k
umin um
 annoy ing
ertain ly
 record ings
w ould
i ological
 troub les
 non etheless
 plug in
H el
 un constitutional
 Ed monton
 le ase
 19 45
per t
sp ons
atern ity
 by pass
 am ateur
 Jess ica
et a
p ay
 ir rit
 dis astrous
 commission ed
clus ive
 MS NBC
 dim ension
 G round
 g reed
 commit tees
g reat
 compan ion
worth y
gener ation
 H TC
Be ing
 l iver
 Cost a
 te aches
 C av
 C T
 den ies
 Re ally
 0 3
 All ah
 p el
v or
 Z one
 since re
 j acket
 L ic
e ment
um atic
 Pict ure
N AS
 Pot ter
 in accur
us hed
ur ious
U se
 D rew
 Ob serv
 exam ining
Ob viously
 M urd
 med itation
 cens orship
 R ivers
if iable
T able
 O z
 Bre nd
V A
eal ous
d esc
 legal ization
 Ant ar
op ic
T w
H ead
 in adequ
in ner
 Ah med
 prom in
 deli vers
 Act iv
te r
 impl icit
 Bar n
if iers
 FO X
 op io
b ank
 Inc re
 D I
\xe2\x80\x9d :
E U
 random ly
M ax
 calc ulate
f an
 boss es
 intern ationally
 F ac
ere n
 expl ored
 Chall enge
 --- -
ia z
 foreign ers
 unemploy ed
 h ike
 hand gun
 grad uates
 Le v
o ven
vent ions
oun cing
 E arlier
 integr ate
 priv at
ur ry
 l azy
K ing
 R af
 D ri
 \xc2 \xb0
 cat ches
 cl ashes
 Ne braska
if ully
ie ve
 Ar med
 b ans
 A irlines
play ing
at hetic
 for k
 disp utes
 Im agine
ific ant
m ill
 d war
B o
ust ain
 irre levant
ab i
augh s
[ /
 L ives
 Tele graph
yl an
 B ald
he ll
 accord ance
we b
b oth
h ad
 retain ed
 def enses
 cig arettes
 adj acent
 M E
av ailable
 O P
 comp act
 S ens
r ams
 R u
 Clar ke
oot s
 land mark
uff y
 encour ages
min ent
G L
ver ted
 Prin cess
J im
 nin th
 Ev il
ig s
 sub t
 16 0
uff ed
ophob ia
 hyp oc
 ch unk
M uch
 Current ly
 Comm ander
 prop ose
 \xe2 \x86
 terr ifying
 stri pped
 Z ach
Hist ory
 int ends
ut er
 light ning
 W ing
l ength
 stud ios
 discon nect
os ity
qu ire
 mol ecules
 real ised
am ation
 calc ulations
 M aur
L ear
 san ction
 Cub s
 Naz is
 campaign ing
 far mer
 enact ed
ig ue
Te am
 over head
 toug her
 intrig uing
 cal ories
 aff irm
 recru ited
 kn ees
B ron
 sc are
 conf erences
 investig ative
 clar ify
 K an
 econom ically
 dep ict
 she ep
 att ach
 subst ances
 Pro cess
undred s
] ;
 pro long
 dr agon
 symb olic
G R
ar in
 r ugby
 prof iles
 social ism
 crit ique
> <
 mor ality
 Week ly
 D ynam
 co pper
 gu ided
 We ather
 cent res
 T u
 homosexual ity
 flow ing
M att
 P owell
 coll ision
ond e
 load s
 pres erved
 st ones
 Boe hner
ograp her
oc y
 sl ice
 F am
 place ment
ain er
 V oice
 unw illing
 assess ed
ect ives
' )
 norm s
 pros perity
 n aming
 proceed s
 fu rniture
 cou pled
anche z
p her
 C and
 Tib et
 special ized
imp se
 not ified
E r
s ires
 a ug
 Sen ators
 gl impse
 relig ions
 U ser
ok ia
f a
 ple asant
 imag ery
 b er
V M
by e
en z
 subur bs
 inc om
 Eff ect
r ace
 sequ ences
 simpl er
 fif ty
 deliber ate
 crit ically
 Tr aining
 fav ored
 v ag
 expl oded
ok u
 tur b
 Be aut
 F ight
 ch airs
 porn ography
 Jo el
 ind ie
 P ic
izz ard
 Carib bean
 Steven s
 T ogether
ri ans
J uly
 or b
ir ation
 he y
pe ction
 Alex and
 drag ged
 Che m
 sket ch
 cryptocur rency
 Hung ary
 pot ent
 mind set
 tri o
 ref uses
 offer ings
 C ulture
 encoun ters
 l ending
 h ometown
 Med iterranean
 Any one
ident ified
 H E
 revers ed
 12 5
 pack aging
 sc al
M D
 emphas ized
at able
i ably
 incorpor ated
lin ing
 fl ower
 sc roll
 real ise
 G am
 Z en
 Mil an
et on
 en velop
less ness
 gl ance
imens ional
 cur b
id i
 gest ure
 disc retion
 dis gr
ues e
F eb
\xc3 \xa0
on est
 st ole
ograph ical
 bre ed
 travel s
 tal ents
b ra
ul ously
ud a
F il
ost ic
 thr illed
 Erd ogan
u art
 P in
\xc2 \x80
re a
N E
 0 7
 turn out
 cop e
om ers
 l ing
d eb
cont ent
 a irst
k ers
 contin ually
 E ight
E nd
A pril
il ia
 Min neapolis
gh ai
AM E
 cance led
 indict ment
 any time
 strength s
ke ll
 min ers
ed In
Un ited
 G ore
 Imm igration
 B ak
 W or
1 30
 contrad ict
 K ay
 m old
s n
 father s
F eed
 commun ist
 share holders
us c
mer cial
c urrent
print s
and ing
 Ed die
 Mus k
J eff
 cont empt
 e rect
ous ands
 ha un
 M umbai
 GO OD
P ower
 account ed
 res il
 rest rain
 J ar
um ar
 flee ing
 de sires
asc us
rik es
ens en
 decent ral
 Lu is
 Europe ans
 Priv acy
 D ian
 applic able
 tow ers
 thread s
 ind ivid
 Id e
 9 00
it ations
 g ambling
. ).
 te lev
 T ouch
oll o
OS E
 has ht
B rien
 vo iced
ug ar
 reb ounds
T er
 T ask
 lack ed
 pract icing
ad ian
 su cc
\xd0 \xbc
 Str ong
 Pal m
P ac
 M eg
 order ing
 not ification
 d airy
\xc3\xa9 e
 fact ions
 import ed
 overwhelming ly
 head er
on al
 \xc3 \xa0
 habit at
 dict ators
it ted
V I
 Look ing
 ref res
 critic ised
 man uscript
 el ites
am pton
 scholars hip
T Y
l ab
 M ath
 ins pection
 W es
an ies
ol ics
 dep icted
 Mc D
 D im
s ight
k ar
 sw ap
ask et
 B aby
gr at
 Th ai
 E thereum
 Ch an
 fru its
per ty
 Mart inez
sh aped
ny der
charg ed
 prec ip
 M aking
 Gib son
 predict able
on ut
 tr im
 measure ment
 conv ictions
 l ips
ch ant
 J ared
Micro soft
 collect ions
 J ed
 Hel p
\xe2\x80\xa2 \xe2\x80
ac cess
 Cast ro
 sur plus
\xa2 \xe2\x80\xa2
 femin ism
 ra ids
tr ue
O kay
ty pes
 was ted
 activ ated
M E
 Co ff
 org ans
 Lat ino
 Un ity
 fe ver
 su ite
 column ist
 whe at
 ab ortions
 HT TP
 poet ry
P ass
F ile
 Wood s
 iss uing
 depos its
erv ative
 C ou
em et
 E P
um my
gh azi
 forth coming
 B att
 activ ation
 be ans
 L akers
sec ution
 j ets
 un law
 appreci ated
 amb ig
 off s
C all
 t ender
 satisf y
 le ver
 purs ued
 B esides
 rall ies
 N ine
 const itute
 we aker
 Y ellow
 progress ion
 Adv anced
Rober t
 ru in
H ello
 sup reme
 lit igation
 M ull
 cons cience
 h urd
 fin ances
 ch ick
 Light ning
p resident
 comp iler
 Dem ocracy
 j unk
y on
 E S
 Tex ans
ON E
Sh ort
rip her
 d awn
J oe
 fre el
 crack down
 Mer cedes
 0 9
 m g
 Mag n
 schol ar
gom ery
 post ers
 Jeff rey
 F o
otten ham
 efficient ly
 wh oles
 M ade
 D w
ft y
 Norm an
 H ig
 be ast
 s id
it ary
 C urt
s omething
ce ans
 obsc ure
 kilomet res
v oc
s un
 hel m
 guarant ees
 car ing
 dist ress
200 7
 Sum mit
or us
ib les
M ad
 Ad ded
 Tra ff
 An a
 uncons cious
 mo ist
 S au
 Vis it
 Labor atory
ig m
 start ups
n ia
 Point s
 activ ism
\xe3\x80 \x81
 Toy ota
 Stud ent
ys on
 need ing
iment al
 confir ms
 des cent
ateg ory
 liber ties
 inf inite
 K enn
UL L
 g ly
 concent rations
 b ored
af ter
 sc attered
 according ly
 threat ens
le ague
 install ing
 d un
 A ub
 rock ets
 C it
 Creat ive
m ax
b augh
 ro oted
 sec uring
 elect ro
 O pt
 wood s
 instruct ed
 pass port
 Hud son
 port rait
 dis hes
 hy pe
 NY C
 ir ony
 got ta
 Gand hi
 inf ilt
 B omb
p aid
at ics
 unh appy
 transport ed
 assert ion
 fix ing
 Can cer
 cry stal
 Fred er
 Ah mad
 wat ches
 r abb
 d ining
 ch im
 man ually
 custom s
 int ensive
 contr ace
 Stat istics
m ember
 K er
ing le
 Ch ad
us ions
am mar
 profess ors
ogen ic
 pat ents
raw ling
b b
 Ma rgaret
B ro
 assign ment
AS S
 L ion
 l i
 You th
 Ad vis
 und ocumented
 sp here
 C ool
 ge omet
os aur
 remain der
 W alt
 Mos ul
 I R
 Spr ings
 He zbollah
 196 6
ris k
 B apt
 Boy s
own er
 shout ing
 he ating
uck ed
 Inter ior
ess age
g ue
 celeb rities
 S K
10 1
 tra ject
 survey ed
 T ree
 project ions
 W ang
 en vision
 sh ark
 post season
 react or
 dis gu
 c abin
arm ing
 sl ated
 marg ins
 bull ying
ys ical
 L arge
D el
 mix ing
 r ou
els h
 t ennis
 system atic
 Squ ad
 N ad
 eas iest
 background s
 vacc ines
 sound track
est on
 gr im
 favor ites
 C P
 min es
 ment ality
oul os
 commod ity
AC E
 Mov ie
 Br ain
 in k
 B anks
 dig est
 conce aled
 academ ics
N on
 apart ments
\xd1\x81 \xd1\x82
 aer ial
 advent ures
 su e
 Mon ster
\xc2 \xbb
 be ats
cl ub
 pr one
 d ug
F ive
 BM W
12 5
 w ra
ik o
 Id ent
 batt ling
 Com cast
h art
ob a
g irl
 forg ot
 L ower
 dress ing
 m ud
 m apping
 tou ches
_ {
Ind ia
 grass roots
 come back
 bl ade
 H im
 dis puted
 G aming
 Com ic
r ising
j pg
ach t
emet ery
 D rop
 met eor
Ph il
 0 8
 he els
 c aucus
 ( \xc2\xa3
 promot ional
 0 4
Q U
.' "
 park ed
 A F
 fl ies
 H onda
 c ables
 sm iling
 shout ed
 appreci ation
 Y ale
 Mal colm
C re
 continu ously
 ch rom
 c af
S il
 l ied
 dist urb
id ity
 nut rition
ix els
 flags hip
 s od
 ble eding
agg ering
 sl aughter
 Oper ations
S N
 indic ator
 P etro
mins ter
 gas oline
 hand les
ph is
ens ed
 displ aced
 an om
 Form ula
 Te levision
 dep uties
 sc i
 remote ly
 mathemat ics
 \xc2 \xbb
 sc ales
 rhyth m
 sh oe
 Ken ya
 trop ical
 Sh a
 col ony
 Ab raham
sh it
 F alls
 Ne uro
 Independ ence
 A K
at ility
 K o
 str angers
 se gments
 multi pl
w age
atch ing
 X i
ert e
 ( -
 mount ing
 w ield
 staff ers
 Cons ider
st ud
 gen ocide
 P ract
 M ons
A E
 Dam ascus
o us
 ver bal
 outrage ous
 Belg ian
 polic ing
 acc laim
 St rip
 Col lection
mid t
 imm unity
 fl ames
 Fin als
 ill usion
 Ben ghazi
 Vin cent
l isted
 l inem
 d ough
on gh
 stat ute
 dis reg
 cle aring
im g
 Cry stal
 unp redict
 M is
 sh ook
 Sim p
 pull s
 dig ging
 prompt ing
 Some one
 ic ons
 compet itor
 port ions
 inherent ly
 character istic
W W
ot er
 g orge
 Car r
ig ion
 connect ivity
 compar isons
 br idges
 bench mark
 Wal mart
 196 3
ad itional
Qu est
 u pt
 Br ight
ipe g
 We ap
 affili ated
 Co in
 M end
es ville
AS E
 Wh ats
th reat
 amb itions
f ix
 Coun ter
m ount
Christ ian
r ise
 to pped
 t a
OU R
 Raven s
 sh aking
P age
 D elta
 small est
 certain ty
 cent ered
 M ini
 car n
w ait
 behavior al
 cro re
1 000
 bl unt
 int ro
 B ren
cific ally
 Major ity
 d are
 Tom my
or ically
 New castle
 dispos al
W omen
 Hop efully
 Initi ative
yn asty
 applic ants
lud ed
 Cont ent
 pit ched
 fortun ate
ud ed
 w ished
run ning
 synt ax
 music ian
 up hold
Ste ve
h h
 Up on
Ed itor
 med ieval
 C ash
 wild ly
 impact ed
 reprodu ctive
 W ITH
 TH IS
gg ing
ar se
 F u
 Sat an
 storm s
g ical
 st ap
 dis ruption
 Sch olar
 pit ches
 view er
 we ighed
 B ody
OR D
he art
 contribut ors
T T
le en
s ay
 gl ac
 G raph
C AR
 at op
 C opyright
 ur anium
Te xt
 Portug uese
we gian
 anx ious
 | |
 cook ed
 App arently
 d ent
 be es
 h ipp
 R ank
 amend ments
ot ive
 A er
igg s
 aest hetic
ich t
 Im pro
 0 5
sh aring
e ve
 st ub
 A CC
 K i
 W ere
s ite
 aver aging
G C
Ob ject
 eat en
 H ERE
 st int
tit le
ean or
 adjust ments
\xe2\x80\x9d ).
\xc3\xad a
ong yang
 we ed
 st akes
n ar
 Re yn
\xe2\x96\x88 \xe2
 as leep
 ve ctor
 W ings
 prior it
 my st
 Em peror
ur ally
C onst
 theat re
p ical
 individ ually
 em pir
or um
 im minent
 Arch itect
ow itz
 rep ository
 faith ful
B as
 pat ches
z el
 phys ic
 sh adows
,' '
 r ipped
 cinem a
 R ule
 p und
 advis ory
 e go
 des erved
 con grat
 attend ees
 St alin
et ooth
V is
 st aring
 Indust ry
 fe ather
 Other wise
 D anish
 found ations
Every thing
 sp ont
 cru ise
\xc3\xa9 t
b ach
3 50
 demonst rators
 r anges
he y
d ollar
 Legisl ature
P eter
 recover ing
ul ing
 Val ent
F ore
 H S
 que u
es ign
 Car roll
 cand y
} ,
 sufficient ly
 B ills
 dep osit
ope z
 distinct ive
 queu e
akes pe
 Crime a
 ju ven
 inspir ing
 car b
 legitim acy
 S id
S erv
 M ob
 cl ue
 p add
 S QL
 bon uses
 M ann
 jail ed
 j azz
ad ata
chn ology
 cert ified
 cr ap
 rail way
 que en
 Reds kins
 hier archy
 und erest
 histor ians
\xe2\x80\x9d ?
 clim bed
 S ale
 K urt
 incumb ent
 al erts
 metab ol
 n ail
bro ok
 n ucle
 Colomb ia
 m a
 adjust ment
 pl ausible
ult z
 un believ
 Gr an
 sec re
om ore
 c age
 Met al
 par as
 Le ave
 suprem ac
 cr ashes
 Ult imate
ould er
gu ard
Not es
 rein force
 ab usive
 Cons umer
 cook ies
 phys icians
ment al
 Gener ation
 t ide
 e cl
um per
im ity
 explan ations
 a fore
 min imize
 B ent
 cont ender
 ut ilities
 she lf
 amb ition
M a
 E t
 imprison ment
 blow ing
 neg lect
S w
% ),
t ax
 found ers
 D ame
 H az
S ure
 resc ued
 off enses
 M ol
 position ed
 Id aho
 R O
 zomb ie
 light ly
 consult ation
 K il
 ---- -
 vel ocity
g ow
 direct ing
 sc am
 cig arette
 Shan ghai
 elect orate
ch t
 deleg ation
 Cre ate
orth y
 Simp son
 Common wealth
 flav ors
als h
Any one
 gi ants
 de ar
 N ut
 Ch ampion
 Per formance
 motorcy cle
st ation
 West minster
 boy cott
T est
 answ ering
 by tes
 ( +
H ome
 educ ate
 sie ge
 G N
 box ing
 huge ly
 incorpor ate
11 1
\xd9 \x86
 The ory
 persu ade
 promot ions
 S witch
 explo ited
 Leon ard
 v icious
n els
 M asters
 Col ts
 al igned
 Lim ited
 half way
 p ork
 row s
 S anchez
 F ix
 run ners
 f reed
ing rich
 ab rupt
 lad der
op oulos
 mor ph
 Arm strong
prising ly
osh i
 collect ively
 K end
 X L
d est
 sim ulation
 M oss
ash a
 ch asing
ne ed
 off line
Sp ace
AR K
ason able
 app ar
 luc rative
I ES
 gener ates
 integr al
 recogn ised
am on
 show case
er ness
 Int egr
 dies el
 consist ing
 P orter
 K ane
 access ed
 V M
 plant ed
 element ary
 autonom y
\xd9 \x8a
akespe are
 W ant
 Es pecially
 sli pped
l av
 fif teen
 associ ates
 Social ist
q a
R ad
S un
 opt imal
 b ru
 Oc ulus
 U CLA
 C F
 curric ulum
 milit ia
 Steel ers
 cere mon
 jer sey
 An alysis
 p iano
R yan
 low ered
olit ics
 mar riages
 M ut
 Confeder ate
per m
 sp ike
 man a
al one
 Le x
 K aren
c amp
 met er
 Can n
am iliar
 acc ent
 S B
 M arg
 .. ..
ad ays
I ran
 negoti ated
 adv ancing
 op ener
 ancest ors
 s oup
 Priv ate
asc ript
 tri v
Ass ad
 po em
\xbd \xef\xbf\xbd
\xef\xbf\xbd \xef\xbf
 w itch
 Em ir
 Str ateg
ef e
 appeal ed
 D j
\xe2\x80\x93 \xe2\x80
 author itarian
 d orm
att ack
 eff ic
b us
 recruit ment
 match up
 \xe2 \x88
c ourt
ber ger
Bl ue
 bl at
 quant ities
 br on
ale z
\xd9 \x8e
 slow ed
 pist ol
ew ay
 S add
occ up
 port able
 satisf ying
 manip ulate
 Q ur
 imp osing
 I Q
 inhabit ants
M ap
um ed
 \xc2 \xad
 quarterback s
He alth
 R A
ie ce
 st ren
 \xe2\x80\x9c [
 T on
Cont act
Tex as
 unp opular
 o w
il itation
 protect s
 bl oc
 u b
 illust rate
\xe2 \x99
 t ales
 Tra vis
 J ama
 al uminum
an as
b as
 loc ate
 p iss
 class ification
def ense
And rew
 consist ed
a que
 emb ark
 Mon th
 up s
 hon ored
 H ousing
oun ter
Re view
 pay roll
k it
reg ular
 hom icide
AC T
 fact ion
 ar rog
 treat s
ir ies
 delight ed
 che ss
Not hing
 res ent
 o we
OC K
ell ed
 prem ature
 blog ger
 Great er
 En forcement
add afi
 trave lled
re ctions
 crus hed
 K ap
 p ond
 p estic
 M ills
ator ial
 N ord
 consum ing
il ight
 diam eter
 protest ing
 fert il
 administ rator
 log s
 V ent
 happ ily
 F ace
road s
 S outheast
 D olphins
 inv ention
 met rics
 Orig inal
 G or
 academ y
 p ul
 Pr ison
 S nyder
 decis ive
 Amb assador
 t ended
 at omic
 art illery
m ph
 over view
el ong
 y oga
 pat ron
ball s
 prol ifer
Cont in
 S eth
 Sal v
 inc ap
ik er
ant om
ad h
 v ic
 N GO
l iv
EN D
 g ates
 sent encing
 uns upp
 no ble
ibl ings
 similar ities
ener ation
 clin ics
 recogn ise
 Cath olics
 det ective
ret ty
 Case y
el ines
 dri ed
 D erek
ep s
 R ut
 c ad
H C
 E sp
uff le
 S pl
 qu ot
 Sc reen
N ob
 dat as
 Del aware
 Gl as
 sl ammed
 liv est
 W E
met ic
it ous
 constitu ents
 contem pl
ech an
 H ence
 Ter min
 Dar win
M or
ll ah
 Richard son
 Bre tt
ourn ament
 yield s
 upgr aded
 prob ation
ke eping
h aw
l ance
connect ed
 incl ined
 \xce \xbc
 L ate
 ven ues
 lad ies
s ix
e i
 O ften
 d ude
S cient
 prohib ition
F orm
 rif les
 Y u
 comb o
 Louis ville
 mark ing
 V a
 S ri
W ould
 sp ying
 seek ers
 masc ul
 cat alog
 app le
k ov
 gen ome
\xce \xbd
C ome
 rest oration
 enthusi astic
r ational
 show c
 G az
 incons istent
og yn
 We bsite
 Nich olas
 mis er
 fart her
 r ip
 appl aud
 breat he
M ain
 196 2
 Hus sein
 sl ides
! !!
 r ider
 exp ans
 frag ile
 W elsh
 post p
 investig ator
 Dise ase
 l ion
 bi ased
 Gene va
 S r
 thr ust
 No ah
 N okia
ig o
dep th
 Hop kins
 hum ble
Ch ild
 pr iced
 h ref
on o
ns ic
 cor rection
lev ard
 remark ably
ach i
 imm un
T otal
 Par ks
is le
 pe ripher
 Mont gomery
 advis or
e ur
 Load ing
 spe ar
" ).
 con form
 Matthew s
 vari ants
 C rew
 ex cerpt
 lic ence
 T rip
 Lear n
 recip ients
 synt hetic
 shel ves
 dep ressed
ro v
 un related
 North west
 weakness es
 W rest
 H A
 end angered
 t ires
 bail out
 cl ips
 catast rophic
 c otton
asc ular
 tro phy
 Huff ington
U G
 J ur
 P ierre
 tight ly
b ane
 jud ged
 g ren
 o st
 A br
 nic he
 B O
om on
 C airo
ard i
e ous
ID E
 P P
 L oc
 o ath
ourn als
w ent
v ance
 ev olving
 Ell is
p ad
 Leaf s
f inal
 util ize
c ond
 n ostal
 un con
 Eag le
it ially
A ir
amp ire
 alleg es
 st aggering
 col ored
 gang s
 air ports
he ster
 up ward
 p oured
 nurs es
 pract iced
names e
 bre wing
 for ty
 sec urities
 down s
he arted
 res ide
 D oc
 mon itors
 cooper ate
 Veter ans
and als
E s
 r iots
 interven e
 V ideos
 H appy
p ose
 An onymous
reat ing
o ir
 As k
 W ait
 sl im
 coinc idence
 hor r
ans om
 camp uses
 prospect ive
 encrypt ed
 K ids
 book ed
 extensive ly
 rel iability
 Sur face
 chap ters
 interf ere
 T ak
 B ach
 ank le
 St ories
ot ics
D ate
 optim ism
 CD C
We b
 echo ed
 monit ored
b ast
iat ric
 rem inis
 prop osition
 P ew
que z
 US C
 Y am
il ers
B B
 predomin antly
 Ber g
 flo ors
 Mun ich
 Thanks giving
 J in
 separ at
 war ns
 ang les
p ically
 m igrant
 symp athy
oy le
 Vis ual
 A pr
 S ter
 instrument al
 task ed
 IS BN
 H ass
\xce \xbf
ou ble
 int oler
 insect s
 defic its
 T ab
 genet ically
 A FL
 well s
e ree
a uth
 we ars
i ott
 re nown
 V illa
 Ag ent
 bound ary
 Gr ace
 enfor ced
 ver b
 fore most
 Arn old
ent ry
r ays
 w ives
 B eth
 U P
b ucks
 Pr ide
 ste ering
 ACL U
De velop
 pract ition
in ers
 ne arest
 Som alia
 whistle bl
 fil ters
 Tun is
B rown
 J ays
 nav ig
 coord ination
 P ub
omet er
 Sy n
 He brew
 ext inction
AT H
 inher ited
 cl iff
Spe cial
 K ush
d imensional
h all
st ated
 bre eding
 R ot
 positive ly
 Budd hist
 Kurd s
ov an
 comb ining
 fe ud
m ake
ir us
 incl usive
 for wards
 10 5
 sh ine
 ad ul
pro cess
 partic le
 Act ually
 s acks
itz er
 cul p
 For bes
 bureau cr
 Tri ple
 Sw an
Q ue
 mult ip
s ens
ann ers
 scar ce
 e ld
ey ed
 Reg ion
 reward ed
 pri ests
 d ip
 assist ed
 P engu
 d oses
 atmosp heric
 emer gence
 descript ions
 hand ing
 Get ting
iet h
s an
U ser
I ts
 bo o
 che f
 t ense
acer b
 School s
B ox
 obtain ing
 sens ible
 relax ed
 afore mentioned
cons cious
 input s
 a u
 C amb
 st airs
 Mem phis
 Fl a
 Winn ipeg
y outube
 T X
Aug ust
16 0
 Cl int
h l
c ock
 g rief
 kind a
RE D
 w oke
 ener g
Don nell
ek ing
an cer
 ins ufficient
 bo asts
 Abd ul
 K enny
 Hend erson
 z oom
 ther mal
 caut ious
 commer ce
 impro per
 Cy ber
O p
 candid acy
 P aper
is co
 deb ts
 respect s
 illust rated
 conv entions
 c oding
 uncom mon
200 6
 dys function
 R alph
 H ack
 L um
ator ies
 pl um
 personal ities
het ical
 light weight
 real ities
 slow ing
\xe3\x83 \xbc
 real izing
 belong ed
 overlook ed
r ina
c ur
act iv
 upload ed
{ "
id y
L ine
ish a
 add ict
 exp osing
 cycl ists
 Cur ry
 F ixed
 nurs ing
 b od
 D ust
 c ensus
display style
M iss
Europe an
 th rive
 Val ue
sh adow
are a
 test ify
 intu itive
h it
 perform s
 12 8
 P HP
l anguage
 autom ation
.' '
 add itions
 Bar nes
f illed
 tour s
 po ised
 unsupp orted
 Py ongyang
 quick er
 Bash ar
 enjoy s
 ord inance
 circ ulation
 adm ire
 H off
 Reg ister
 c ripp
 blank et
cy cl
 St rike
 N uclear
 bas ics
 tat too
 se ize
play ed
 Re lease
 ass erted
 Ste phan
 t ags
 agg rav
 B ark
 orig inated
 subject ive
 Progress ive
 paint ings
i u
g rown
 Pre vention
er ie
 W AR
 196 1
 recip ient
\xc3 \xb8
 je opard
 a in
sex ual
ane y
 ty r
 vibr ant
 Re act
 no on
 g em
ile m
 comb inations
 cas ino
 K iev
Rich ard
 wond ers
 b ent
 Sil va
 vol t
 coord inated
 Mc N
Re illy
 repe ating
 gu ides
 Un less
et z
 gr ades
 Mon te
an throp
L ocal
 Wild life
L L
 Kle in
 redu ctions
 awa iting
 Sh akespeare
f air
Wh atever
un al
 l oot
 imm ers
 Kas ich
 monop oly
 V I
 H ook
 particip ant
 liqu or
 B ec
 wh ales
 fl own
 eval uated
 A j
 spr int
 s way
 Word Press
ch at
 Tit ans
 im aging
 C raw
 Sch ne
 Nor wegian
 Ad rian
 M atch
 Hold er
 red irect
depend ent
 deal er
 Fal cons
 cl ues
g on
xt on
ul i
mit t
il ogy
 hilar ious
Ge orge
Pl us
 E aster
 Budd h
 mention ing
 trad ers
 reflect ing
 Com plete
 h obby
 Al z
 tast es
 S ie
d ist
amer a
 detain ees
 abund ance
 Emer gency
p ict
 Dod gers
 Nov a
 sc iences
 merch and
up iter
 never theless
ener gy
 0 6
 an ten
 buy er
 wh ale
 Rand y
 soul s
 C ort
Col or
f amily
 pick up
os ion
ine a
ag le
 J unior
 C I
st rom
 m asters
S al
 inher it
cl ock
 dev il
iz oph
 triv ial
 T ories
az or
 F aith
 Em ily
 c ared
 Pear l
ec d
 R ules
M ENT
 bot hered
 H ob
 G ang
 form ats
 fl uct
 G oth
 At hens
 lit eral
 watch dog
 H ost
gg y
 Ba iley
 Isa ac
 Gab riel
 Agricult ure
 opt ical
 sl ogan
L og
 K id
ruct ed
 datab ases
W elcome
 u mb
 R ust
L ove
 U l
 dist ances
 under grad
 man ga
T L
 s i
 E ye
b illion
 sam pling
S ources
 C ob
 c ivic
 aston ishing
u ber
 T ottenham
 rece ipt
v id
 obs essed
 dark er
 demonst rating
g ay
 supp ress
 gr ams
 u m
 Er n
 hur ting
 Met ropolitan
 red esign
st airs
ins ki
 inadequ ate
 sun light
 ins isting
 writ ings
 exha usted
rop he
 Th rones
\xc2\x80 \xc2
 under water
 S ite
 Hy d
 emp athy
 p unk
 Ferr ari
abl e
am ples
 fin est
 Josh ua
 cou ch
 lobby ists
it ime
 s iblings
ra f
S ocial
 Ev an
 Pere z
 overwhel med
 organ isms
C ON
 diplom ats
 e ternal
es ar
 st agn
 Jen kins
 vast ly
 serv ants
 Austral ians
 T win
 protocol s
 micro sc
 M UST
 Dep ression
f un
en es
 con gest
" ),
alk ing
 sm iled
 B our
 sn ake
 St uart
N O
 horizont al
 premium s
 assault s
 de portation
 pus hes
 ex acerb
dri ving
 mole cular
 Sach s
 w olf
 en compass
 J ob
ere rs
 prox imity
 P oke
 understand able
 conj unction
d id
 met ro
 Le aders
 craft ed
 Her oes
W as
 pay load
 S weet
 spin ning
 A IDS
ear th
im edia
 T iger
 S gt
 He avy
t i
o at
 bank ers
l at
 proceed ed
 barg aining
 F uk
 work out
 capt uring
 b og
 jew el
 adv ise
 N y
 en light
 ver ified
 prim aries
ad os
 g ases
 19 48
ophob ic
 inaug uration
 b ounce
 Prop het
 med ications
 St range
im ination
 apolog ized
Current ly
 st aged
inent al
 l ingu
osa urs
 shall ow
 k et
 activ ate
 accompany ing
 In g
 Pro bably
 ax is
 D ylan
-- ---
 secre cy
 A ur
t ake
 surf aces
 eleph ant
ro e
D isc
 injust ice
 Not es
 imprison ed
 promot es
 sus cept
 j ar
 impl ied
 Kash mir
 Viet namese
 supp liers
q l
ac i
 rebell ion
 She ll
s ic
izoph ren
 Ap ollo
sh ine
 M ix
 un named
 ind ul
r ar
 national ism
 B in
D ear
 alph a
 firef ighters
 N um
s uper
 sp am
 G ingrich
 comp ile
 L av
pro t
 He aven
ig el
S QL
ise xual
 lo oph
 Sh op
 disapp ro
 state wide
 in ning
?? ?
le um
H and
 who lly
 rele g
 be am
 tra it
 administ ered
 Re x
 past or
 gener ator
 not or
if a
 tr ails
 incom plete
 retail er
R ub
 dr astically
f ood
 Econom ics
 compl iment
 P ul
 D ow
 shot gun
 assum es
 N am
 E A
or p
 F ew
 b aking
 en rolled
Sand ers
 sl ots
 b rib
 hur ts
 to ggle
 cont ention
 pop ulated
 Cro at
g the
 fit ted
 hint s
 Mar ie
 pa ired
 borrow ing
 new com
 d uck
 TH AT
 l amb
 Sc ript
 p ets
 highlight ing
 R B
 bat ting
 stab bed
Con clusion
 vit amin
 so y
 ar row
7 50
V C
 R ab
 f lick
 lot tery
 am ended
aw i
 l enses
gthe ning
 Ins ider
 Ind y
 gra pp
 athe ist
 par a
 Fl int
Th us
 b ang
 T PP
 plaint iffs
p res
 res id
 object ions
 contest ed
 affect ion
 D at
 back ward
author ized
 comed ian
 st ing
 C AN
intend ent
 ext ensions
 E ug
 phenome na
 W ag
im er
 prob able
 out line
 B io
re lla
 ro pe
 c ites
g one
 Arab s
ie ves
F I
 pen is
p u
us k
h ouses
// /
 th y
 j aw
ind ust
AR Y
ou x
Cl oud
is se
 un equ
r re
 sub urb
 gorge ous
 Cole man
uss ions
Sh ould
 IM F
rig er
 Ash ley
step s
 mot ive
 rev is
 respond s
nd ra
 c ater
 Or d
 r h
 tort ured
 main land
 H alo
ourge ois
 pass words
\xe3\x81 \x97
 emb ry
e pt
 inter ventions
 helicop ters
 M ak
 g ently
 popul ist
 mat rix
 analy tics
 self ish
 admit ting
 obs ession
 Ell iott
other apy
c iously
 co h
 an them
 cat aly
 S ask
 p ills
 contro llers
 stand point
 Ch a
 App eals
 sum s
ci ation
 Bur ke
 ----- -
ot ine
 J os
osp here
 territ orial
in burgh
D ev
iet al
 ware house
 Pat rol
 explos ives
 P or
 D ad
 conf isc
 cast le
 hur ricane
M ass
 M our
B erry
 un ified
 Indust rial
R un
 GT X
 concent rate
A ut
 fig uring
 P and
 col ours
s um
conf ig
 cry st
 syn chron
R P
 log ged
 V irtual
 Ind igenous
uk a
ump s
 Off icial
ut ral
ar ious
 ens ures
 V el
You ng
ib al
 symp athetic
 log ging
 val ley
 prot agonist
 min ors
ook ie
AM Y
 se as
 o wed
F ixed
 privile ged
 Sh o
 * /
200 5
C ent
 E sc
sec ret
 erupt ed
 Dra ke
 N aval
igg ins
In c
 Qu arter
 cons oles
Sub scribe
az ar
 App ro
 un b
 s atur
 ide als
 Treat y
O k
E p
 L anc
ut ic
 an ecd
 prosecut ed
 St ream
 sad ly
 des irable
 psychiat ric
 surf aced
oint ed
 emphas ize
 SC P
 rev ision
 def er
 pl ots
ant on
man y
 wel coming
 Em ma
du llah
 U FO
 feed s
 Gu ild
h n
commun ications
 \xe2\x80 \x8b
Th ink
 soph omore
 to pp
yl on
 F ocus
Off icials
 week ends
in v
 stret ched
 can on
 mos qu
 T ol
 sand wich
 Pel osi
d et
d eep
 calc ulation
 Go ing
  \xd7
\xe3\x81 \xab
oc used
 T at
year s
S ix
 distingu ished
p olitical
M arc
 W end
 M t
oph y
 mag net
ract ed
 incomp et
 constit utes
 W alsh
 conf ined
 l ur
 corrid or
 select ing
 Roberts on
 en rich
 d ice
 intern ally
if le
AN S
 Sim ply
p al
 correct ed
 N RA
IT E
14 0
 hack er
 J agu
 pool s
 inform al
 sens ation
ant a
 greet ed
 L anguage
 Bapt ist
 at roc
at tering
 cool er
 We instein
 partners hips
 under cover
 defin itions
 H od
 react ed
 process ors
m and
 gau ge
 Circ le
\\ /
M ult
 traject ory
 V ersion
c ue
 Kn ights
 home owners
 Con cer
 Re b
 g ru
pe ace
 c el
Oct ober
bu ilt
 flood ed
 L opez
 vend or
 compl ications
 prov oc
op ath
 jump s
 O mar
 cont ests
 R idge
 ass ure
 cur iosity
pro te
G P
 la wn
 fin ed
 conced ed
 sk ate
 ball oon
St op
hol m
 pedest rian
 D ale
. (
 hom eland
ne ys
 up rising
 Ll oyd
r ill
 o ceans
 l od
com mon
 liber ation
\xd8 \xb1
stan bul
C BS
 command ers
w ald
 compe lled
 S ak
 syn c
ind uced
 max im
 Con n
 prop osing
 D iet
 B ot
 deb ated
 mach inery
 propri etary
 fair ness
H y
 St ay
 W A
 Advent ure
 all ocated
 h ills
\xe2\x80\x9d ),
 sh irts
 reck less
 o ct
ans on
 U g
g mail
 NS W
ri um
ela ide
 buck et
 be e
 Eth iop
 har ness
 Dub ai
hed ral
 arm ies
 Gu ant
 compr ised
set t
C T
 pres cribed
 He ights
 Alz heimer
is ite
\xc3 \xaa
do ors
 success es
Ad ded
B ob
 unlaw ful
 sex y
 \xd0 \xbe
f its
 L O
 color ful
 Inn ov
 pur ported
 N early
 C inem
 delic ate
 W el
 Trans it
 En c
he res
 V o
re v
od ied
 var ies
 sing ular
os c
 sl am
 air plane
 was hed
 stereoty pes
 cell ular
 c ried
 cho oses
\xe3\x81 \xa7
 th a
ic ans
 P os
 C ensus
 nick name
 ment or
sp an
 parad igm
 The resa
 E M
 ub iqu
 suff ers
 not ifications
 Mar ines
iff e
aze era
 story telling
 prompt ly
 19 00
S IS
 femin ists
 qu eries
 S HA
 Greg ory
 pl ural
ract ion
 project ion
 ambul ance
ar ak
Pro ject
 F ine
 L amb
 debut ed
 Alf red
 parad ox
he ed
 C li
rist ol
 connect s
ry s
respons ible
c ision
 broadcast ing
 after ward
 recru its
load ed
 strateg ist
 ten ants
 Fal con
 mor ally
Res earchers
 K ell
 H ood
 exem pl
 U T
 compet itions
 var ieties
 ha w
od er
 Sch umer
 gri ev
S aturday
 vis ibility
 cl oth
 pot atoes
 trans mitted
IN T
D an
 prest igious
 stun ned
 sen iors
 Har bor
l ain
 Sol id
 Polit ico
I B
 method ology
che m
 Dut erte
 maneu ver
 perce ive
uff s
 voc als
az er
 Gl en
 comment ators
af ort
 alarm ing
ian i
 gl oves
 eleg ant
With in
ick er
 obst acle
 bur gl
 out reach
p ark
 struct ured
 mil estone
 mis dem
M ORE
 co vert
 D ana
\xd0\xb5 \xd0\xbd
asp berry
be cca
 pit chers
 colon ies
ustain able
 Th om
 Championship s
 system ic
 unpredict able
se at
 fool ish
IC O
e ight
Al ong
 weigh ing
 E arl
 sw orn
 sm ok
 hasht ag
 ver se
 b acon
aun ting
 N as
 cr ush
! ).
 yell ing
 max imize
 host age
ov ak
 Lib yan
d ess
 exclus ion
 he ck
" [
ld a
 ignor ant
 bless ing
t ag
 Post ed
 rom ance
 renown ed
vert ising
 insure rs
L ive
 M aterial
p c
it ches
 N FC
 Imp act
D am
 R BI
W ant
 Or acle
 lo vers
 interrupt ed
at ivity
 consider ations
 F ortunately
 imp ly
ownt ow
m ut
ri ents
 teach ings
 Bou levard
m ajor
 impro ves
 gar lic
o ct
 hum ili
 F a
 C able
im en
 time ly
 infer ior
iv ia
 rel ates
 l ining
 hold er
 brut ality
 unsuccess ful
 barg ain
 dest inations
 prem ises
 l ament
 acceler ate
ocaly pse
 p ixel
 min us
 fin ishes
OL L
 bund le
 Charg ers
 preval ence
 e Bay
 br acket
gg er
 an nex
 C ele
re view
 B rent
 k its
 incon ven
 vulner abilities
 cr ises
 D h
 p ap
 neighbour s
 s ore
 T roy
 B ever
F ar
 discover ing
n ull
 works hop
 out law
 uniform s
Republic an
 M oto
 Lear ning
 Win ston
 F ear
ag ne
 mer ger
f ax
 Par ad
Th ings
 exceed ed
 LGBT Q
 st ew
 down ward
owntow n
 Aut om
it ives
 L ag
 Bro ck
 r ust
 privile ges
 exc av
 discuss es
 St age
 T weet
ri ad
 embarrass ed
 Mor rison
 Gonz alez
 Glas gow
 phr ases
 appet ite
Sh ow
 n g
 el imination
 ball istic
OU T
 J upiter
ang led
 " [
bl ue
 X P
 toler ate
 I van
 T E
 Blu etooth
N or
 av iation
 unw anted
 grad uation
em ption
 brows ers
Sept ember
 T i
l al
 tw isted
G I
 mar ched
b ps
 The ater
 cle arer
 Aven gers
og s
 L ux
 sol ic
 championship s
 H app
 enjoy able
b ard
 accept s
id av
 L iqu
red ited
 recogn izing
 per secution
 C rypt
 mis ogyn
B ern
 W ake
 gun man
 g ad
 H ab
x on
al iation
 bl aming
 a kin
 specific s
 shut tle
 10 80
 bed s
ol ith
 wrong doing
 resist ant
 dis respect
 B uc
 typ ing
] ]
 appropri ately
 Pri x
com fort
 vol can
 con ceived
 A verage
 GOOD MAN
O per
 Ser b
 F ighter
 U pper
 vac ant
 Reyn olds
hy d
m g
 re per
 cul min
J ul
oci ated
 b ore
Cong ress
 dis abilities
Jo in
J S
 desp air
 ric hest
 J eb
n al
 Fil ip
an ity
 P le
 N ode
C ourt
\xe2\x80\x9d ;
 extrem ism
 M ik
H op
 nomine es
 E rik
 thought ful
int o
ard on
 notice able
R edd
 Ins urance
 pip es
with out
 ingred ient
G H
at ism
 l end
 diam ond
 ded ication
 tw ent
 M ets
 corner back
 Sat urn
 thr one
\xe4 \xba
 right ly
ev al
B ur
 num er
 prohib it
 id iot
ric anes
 perform ers
 advoc ating
 E L
work ers
 condition ing
 M aps
 } ,
 tun nels
 ex otic
 pr ag
 fuel ed
in yl
 t il
 Trans port
L ead
 rep ay
c ot
 an at
 meth ane
den ly
 ste alth
U TC
 Turn bull
 the sis
U RE
 fr acking
 sens es
 \xc2 \xab
 critic ize
th ouse
 T ap
 L ogan
 l over
 entire ty
 war rior
 detail ing
 pl asma
 display ing
 out field
it an
 artif acts
Republic ans
ex cept
 C el
ins ky
 Rep orts
 g rit
 \xd0 \xb8
ci pl
est ine
 un just
achel or
nder ing
 sing les
ine ment
gu ided
F ind
 recogn izes
 Scient ology
C amp
 Fre eman
 kn ocking
p aper
An n
 bar red
 loc ks
 Bas ically
 K on
10 5
 dis asters
 Leg ends
ion age
 prejud ice
 influ x
ah ar
C ode
 head set
 ------ -
 met adata
 adop ting
 ph osp
 mer its
 Per l
 mar athon
 Sing le
red dit
 fur ious
 acknowled ges
 Cont act
 num b
ic ularly
 rest art
\xe3\x82 \x8b
isp here
 Sadd am
 I gn
vas ive
t z
 p ixels
 mer cy
 story line
c ro
 PC s
 tr aces
 cort ex
 w ary
 wip ed
 Ed inburgh
 band width
 Pers ian
 un m
 pun ct
li ber
 v ivid
 inaccur ate
# ##
 inst itute
al ion
 l ag
 illust ration
 alt itude
 off ences
 occup y
 man kind
 det r
 att ain
 Start ing
200 4
 Frank en
 v est
 c ows
 preval ent
 L ith
 U nd
\xe3\x81 \xa6
Get ting
 de er
  \xeb
w ere
 round ed
 prolong ed
ind a
rus t
M el
 d y
 Kn icks
ram id
 bl essed
 inaug ural
 exem ption
 FR OM
A round
 Aud io
 sett lers
 gl uc
Pac ific
br and
 coc onut
 Burn s
 R ange
I Z
 G y
 freedom s
 Mill enn
D aniel
in el
S W
 season al
ch anging
ic able
B Y
F in
P o
ac a
Th omas
 sm arter
 SU V
 indu ced
 A RE
 unst able
 Pr adesh
 warr ants
 ref eree
 p ave
k ara
 er ad
 car pet
 cap ita
 exped ition
b usiness
cent er
E lect
D en
 b ourgeois
Al most
 gr ind
 f ist
 mot ives
 aggreg ate
 fact o
oy s
sh irts
 Dev il
 St o
 program mes
 Emb assy
 accommod ation
atin um
 c ite
 h over
 orche st
 comb ines
 SN P
p arent
> </
 Fif th
 ab st
viol ent
! \xe2\x80\x99
 R ift
 C aval
g rowing
c ourse
 Spe aking
f act
 st ems
 listen ers
 C ad
 t apped
 19 44
p ers
b ird
 defe ating
For ce
 diet ary
Ex per
 con qu
 C e
 benef ited
 mir acle
 Pri or
f light
 program mers
 enthusi asts
 coun cill
 Hait i
US E
ab we
 I CE
c ig
 T C
V ery
 R hod
com plete
an ed
i ov
 recomm ends
C rit
 W izards
 D ash
 cr ust
 bureaucr acy
p i
ing ham
 sanct uary
 criticism s
 hous ed
 L P
 symp ath
/ //
 rig orous
 S print
im ag
 E isen
Rec ently
op hers
 N ak
 reb oot
 concess ions
port ing
ick y
t les
er k
 paper work
 prost itution
 upd ating
) -
 she lls
 bom ber
 statist ically
 unf amiliar
ren ched
sequ ently
am el
 gra vit
 length s
 pred ators
 un a
 det on
 S ales
 Bas ic
xx x
 G L
 ru ined
 me ga
in qu
R ock
 for fe
 Star bucks
Pr int
 host ility
 heav ier
 d ilem
 char itable
imb abwe
 Elect ronic
 R uth
 Sch midt
 K ob
 Jul ia
 Hy per
av an
 I stanbul
 philos opher
 def ect
 N L
 uns afe
 O t
ched el
ess ors
 position ing
Phot os
 coordin ate
 H orse
 st unt
 WH O
 ter rific
 reb uilding
 Roll ing
 ins ider
 den ounced
 Ever ton
 \xc3 \xae
 C ork
 acqu iring
spe aking
Nob ody
Fr iday
 E ST
ixt y
 ter ribly
lic t
 Git Hub
\xc3\xb6 r
 simpl icity
 persp ectives
 there after
ond o
 crack ed
 forb idden
 sne ak
 Su z
 Se oul
 N J
\xe2\x80 \xb2
 port al
 Ang els
 O kay
 wh it
 l aps
 super visor
 Tim othy
w s
 Partners hip
g ro
 illust rates
 f usion
 referen ced
ill es
 j ournals
 Se bast
ay an
place ment
Be yond
 object ion
 gr an
ipp le
 pl at
c in
 A V
\xe3\x81 \xa8
 sh ade
 Ow en
 infring ement
 T ournament
ist ical
 off ended
 Mor oc
oun t
am ount
 s perm
so ver
 big ot
 O ri
 sch izophren
 Rom ania
cast ing
 Citiz en
rest rial
ters on
 analy zing
 F F
ig ibility
 tr action
 introdu ces
av in
% ).
or ie
 request ing
 as c
 antibiot ics
ograph ics
 j ungle
Mc C
 ident ifies
 soc io
 Sher man
M ex
 sl og
 B uch
 20 30
ire ction
 diplom acy
 Space X
 Le Bron
 intention al
 ch ill
 borrow ed
ac s
 G ur
rat ives
ish ops
 Not re
 S ame
 Princ eton
a ft
 skept icism
Bel ow
 super f
 bro ker
 cert ification
Add itionally
l ived
 aff idav
T ech
B uild
pr im
 Lind a
 vol atile
 Victor ian
fund ing
 fright ening
N OT
 rec ons
 unch anged
 Scient ists
et ed
W R
 Moh amed
 super b
 rec laim
Val ue
 Al ways
 ton nes
 reg ain
 M az
 B un
oles ter
 ar che
 P ist
 so ap
p atch
 fat igue
 Poke mon
 detect ives
 bet ting
 Ma o
 end ured
Int erest
 Bet a
 R are
 Che v
 v ine
 S tern
 Exper ience
 indic ators
 Aub urn
af ia
 J ill
p rop
\xd8\xa7 \xd9\x84
 L iter
 m es
 C lear
 vis as
 terr ified
 sh red
ul ators
t v
W il
 health ier
us ers
he e
 fav ors
 f ren
 absor bed
\x93 \xe2\x80\x93
gg ie
 Aust rian
ng th
OW N
 Dec l
 vir uses
 cooper ative
 K umar
 R S
 Court esy
 C ities
Pl an
 g le
m ass
 clean er
e ves
 circ ular
 11 5
ie u
 Murd och
 Let ter
sh ould
ight y
keep ers
 mir rors
b ial
 V ince
 cap ac
T urn
 lower ing
ern ame
itness es
it us
bl ood
 che ating
 interrog ation
 IS IL
 E N
 bron ze
\xd9 \x85
o an
AG E
 v intage
ed in
 H i
av ior
 sh aping
 D ani
 Cl are
 pe cul
 Pl ant
 und is
 Ab dullah
AN K
 19 41
ia o
 back yard
 ref riger
om ical
 mis un
 submar ine
spons ored
H i
 access ories
 exclud e
 aut op
on so
 unus ually
 17 0
 ph ases
 nort heast
P ay
" ]
 be ard
\xd0\xbe\xd0 \xb2
ount ain
op ers
C y
 under going
 tack ling
 Person al
 M ig
 email ed
 free zing
 l av
ink le
12 3
 national s
 cy l
 un real
 cell phone
 take over
 min eral
 horm one
 b ast
 d od
let te
 end uring
 Day ton
 sub po
S B
P rodu
 N ice
 M iles
 ce ment
 Rich ards
l ings
 squee ze
 devast ated
 film maker
anc ers
 goal keeper
 Sask at
ices ter
et c
 brand ed
 Br is
ins pired
 str ains
 advoc ated
 Sp art
\xe3\x81 \x9f
um i
 beaut ifully
 Jul ie
 communic ating
We ek
 Ann ual
 ins ulin
 inv iting
u ador
 R ugby
 P OL
f u
 psych ologist
19 90
 Fried man
 E instein
 n avy
ev ent
 int ric
 proud ly
pt ive
r ust
 pos ing
 hy ster
\\ -
 tour ing
ign ment
 govern ors
w ave
 ref ined
 Celt ics
 C raft
 alleg ation
 mark er
 enter prises
 H arm
 do i
 back drop
ick ers
 met als
 swit ches
 model ing
 happ ier
 st ip
K im
 Sim mons
 NY PD
mod ern
a ic
 court room
or f
ot ers
 pal m
H am
ett ings
 imper ative
Brit ish
 sc aling
 hand c
 exp on
 Core y
 24 0
Im agine
 R abb
w en
 D ot
 respons ive
 interf aces
 El ite
 sn apped
 announce ments
 Every body
oss ibly
 Me yer
 deter mines
 arch ives
we ather
 stretch ing
 bal ancing
ent e
 contam ination
 wa ist
 } );
 restrict ion
 ret aliation
 reiter ated
 p ulse
K en
 undert aken
 rival ry
 a rose
 recept or
 develop s
y ers
 th under
 s oda
 f ost
 cha otic
 Haw ks
 19 47
 DO J
 depend ence
s ided
fol k
ok a
 ar senal
Res p
pl ates
 L ay
P ict
S ar
 h orn
18 0
 travel ers
 st ellar
 inf ants
 short s
 hard core
 foot print
 p and
 authent ication
 engine ered
 ON E
m ult
 merchand ise
 was hing
 attract ing
ump ing
 p ine
 obser ving
 gall ons
 imp air
 dece ased
 confir ming
 je ans
 C atherine
 Bah rain
H as
 critic izing
bal ance
 compens ate
 agree ing
 In spect
S ave
 appar atus
squ are
 predict ing
P T
 T W
op ed
ra ve
 special ists
 rev ival
 re ef
 innov ations
 fl ame
 anticip ate
 V ision
 Pan ama
 vis ually
 poss essed
we e
rec ord
 ele ven
 pen al
 Gr ad
 ey eb
 l aughter
 deleg ate
 Walk ing
le ys
ill on
ount y
 ep it
be h
ax ies
E ric
K evin
 opio id
 L ed
b uster
20 18
 Map le
 rest ing
 Co ver
 ------- -
 core s
 w ipe
 Ult imately
s ch
 Gil bert
99 9
lu x
 distract ion
 Sc ore
 pot ato
 ( .
\xd0\xb8 \xd0
200 1
 t ant
 Val ve
 broadc aster
 war mer
 star red
 aut umn
\xec \x9d
 clear ance
em a
ed u
 Us ers
 kidn apped
 war riors
 pri zes
all ah
ster dam
Add itional
 s idelines
 burn s
if ted
 reg imes
 R apt
Other s
 dump ed
 dom ains
 ur gency
 Gr ass
B D
 end ure
H R
\xe3\x81 \xaa
 ec ological
 Expl orer
 Cent ers
duct ed
Wind ows
 concept ion
 o live
 bull shit
 Man afort
 visit or
 negative ly
! '
 r im
 contract ed
amm ad
 H erman
 Dam age
Le ague
 m s
Ch ief
in ters
R ay
n ings
I AL
 select ive
 capt ures
 their s
 radio active
 b ilateral
 dub ious
 Brend an
 categ or
ar ium
 pr inter
 rod e
 Pro duction
 Sim ple
et itive
 bl ows
 react ors
 Hay es
 Till erson
 van illa
  \xef\xbf\xbd
 nod ded
 S hip
 rad ically
 Merc ury
or ian
 seiz ure
 rep airs
ort ium
 Pen insula
 H ogan
 unbeliev able
 inst ability
 depend ency
mo il
 log in
 explos ions
 st al
 sever ity
 volunt arily
 ill icit
 Craw ford
ien cies
pl aced
 m arsh
 astronaut s
as is
 shel ters
 screens hot
ur st
o qu
 que er
 Leg acy
 pe an
ans ing
 Det ails
 contam inated
 obser ver
 R iley
 good ness
 Com ment
\xd1 \x85
 crypt o
 C ards
 s ights
John son
 program mer
land er
 lone ly
Up on
verse ly
 th wart
 acc use
os er
 Cris is
 Emir ates
 assess ments
 B ristol
 cr unch
 side walk
 subsid iary
pro ject
 \xe2\x86 \x92
 content ious
\xc4 \xab
 Pl aza
 h ollow
 G ross
E V
 the rape
 prop he
en berg
Ad am
 Con way
 d well
 pal ace
Bit coin
 stret ches
ff iti
Redd it
 path way
 b isexual
 fre ak
 rob otic
p arents
 dem ise
 disadvant age
 H ernandez
 pour ing
 hun ter
 shut ting
 rig id
health y
 f og
 Hon or
 Sp icer
More over
 Ve h
 direct ive
200 3
 redu nd
 correspond ence
 Sch ultz
N ovember
 j ealous
 aw aken
w ic
c ry
 J et
 Bru ins
B P
Y ear
 re he
H uman
 S end
K it
 Fr ame
 cook ie
 compet ent
 Le o
 empir ical
 f ra
 Vi enna
 t am
 ru ins
 S aw
 transl ates
 metaph or
 d iving
 R oute
 v om
 b end
 s ack
 ple as
 W u
I ll
 \xe2 \x89
 withd rew
 to e
 T M
 surpr ises
 sell er
 ren amed
S u
\xc4 \x9f
 P ain
f ed
 lau nd
ple asant
 Sh ane
 Andre a
 Bl izzard
 Su ccess
E nt
 char ities
ore st
c led
 ex terior
 cost ing
 Re play
 B ert
b ag
 r anged
 \xe2 \x96
 Jed i
 relent less
ott esville
 rem ed
 ineff ective
 par an
 char m
 C rist
 ins erted
ic ates
 F lickr
Ar ch
 do omed
 d ull
  \xef
oun ge
 Resp ons
 Bren nan
r h
 br ig
 tr aced
 dig its
 Invest ment
 reminis cent
AC A
 AP Is
 Ad elaide
k owski
 into x
 D ell
 Invest igation
st atic
 le mon
 le aking
 E gg
Am azon
 own ing
 J azz
ant ry
P ublished
 pres ervation
 po pped
) ?
 N est
 Che ney
 s rc
 all ocation
 Reg ardless
 acceler ated
 mod ifications
IS A
 s om
 a ven
abul ary
 dict ator
pl anes
isc her
 cont end
 viol ates
elect ed
 juven ile
 her b
 Food s
 download s
 repl icate
\xe3\x81 \xaf
 pen cil
 p ensions
 pres erving
 depend encies
vel ed
 pig s
rah im
 not ices
w ife
D i
 reward ing
De cember
 merch ants
 acceler ation
 feas ible
 appoint ments
OR Y
 rad ius
 C opy
at ured
^ {
g em
 tw ins
 m asks
 Th an
 Web b
S omething
c ity
B esides
 ye ast
 L ance
 att achment
be e
,\xe2\x80\x99 \xe2\x80\x9d
 Beh ind
 out dated
 discont in
 laugh s
ident ally
 N an
o ids
in vest
Ch inese
 up held
 sp ouse
 prosec ute
F OR
 po inter
 r apper
 poss essions
 v andal
 Observ atory
 de af
  000
any on
J ones
 T rent
iv able
 S kin
 F act
 195 9
 iron ic
 fore see
 at oms
 Jud iciary
 Ar row
C raft
 up wards
 Kush ner
ate l
 Pir ates
it em
 enroll ment
 oper a
 in ad
 R F
m atch
 negoti ation
M ur
 P TS
 P E
f alls
 S oph
 veget able
 spir al
 embr acing
U r
 prim itive
 T aking
 E lementary
G roup
 train er
own s
in ational
D ig
 18 00
h ops
 fest ivals
 cont ributes
E ver
 res olutions
c ould
aw ays
 fert ility
 toss ed
 Br anch
 Beat les
 micro phone
 shr ink
ro ot
 v apor
 need le
 dis se
 bomb ings
L ou
 le aning
 ha iled
 congress man
 & &
l ins
 10 2
S und
 shoot s
 hun ters
 te asp
ett i
S n
 v inyl
v ideo
 K in
 re jo
 al lev
( $
 cop ied
 Z ucker
sec ure
 Pro du
 mer ge
 all ied
 cost umes
F inal
 Spe cifically
 forecast s
 withd rawn
 mod ification
 iter ation
t imes
 mechan ic
\xce \xb9
 Vol ume
 Dis covery
 Dev ils
B T
AT A
ob ject
 rad i
 myth s
Bet ween
 p ier
g ie
eter min
 10 4
\xc5 \xbe
 stamp s
 B orn
,\xe2\x80\x99 \xe2\x80\x99
 ap ost
 ch amp
 Conserv ation
 hop eless
 dimin ished
 A be
 discover ies
 disappear ance
 G ul
 Man uel
omed ay
H E
 X X
 retro spect
 inspect or
 Com edy
 t ally
 e man
 K iss
  \xc3\xa9
 ch uck
ven ant
st atus
Supp ort
 s ou
 per tain
S F
 access ing
 Me et
 anticip ation
 cos mic
 v ault
 doub les
ret urn
bor o
ari at
 volt age
 uns ure
 Prof essional
V ict
J ew
ile aks
 r uth
it as
 smooth ly
A BC
he id
s rc
 out spoken
 Rock ets
D eb
 tur moil
 g aze
 Ster ling
 l b
 sal ad
 Mir ror
ush i
 gif ted
ent ric
 my riad
 mamm als
 fr amed
 Tw enty
m ails
 o lig
i ak
c f
 athe ists
larg est
 pod ium
 occur rence
 fore front
 alleg ing
 airst rikes
uff er
f alse
 offs pring
 Z imbabwe
 Act ive
 sex ist
 extract ed
 Ali en
 fore nsic
 M ead
 valid ity
 milit ias
ph oto
 C ord
 Whats App
s il
 adequ ately
le aning
 Ge off
 t outed
 South west
 Mem ory
 Us ually
 Ad obe
 Mount ains
 G ir
 na ive
 National s
 # #
ex pl
 nar ratives
 F M
 trig gers
 intr ins
 compat ibility
 L ud
os ter
oster one
f ired
 B oss
 Tr ack
t at
 can cell
 neuro log
 celebr ations
L in
read ing
 Qual ity
 ext rad
 D uty
 Mon ica
d oc
t ier
m or
 jud ging
am ic
 -------- -
 r ansom
 Tro phy
 stim ulation
 per ceptions
 imm ort
 che ek
 inter val
 Beng als
 e cc
N ick
 Jo in
 ground ed
 f urn
Dem ocrats
 B ass
 cr ashing
 creep y
 elev ator
ess a
 Rec ently
 pret ending
ud s
iss an
 sle pt
 Sim ilar
 Fl ag
 w ires
 aster oid
 exch anged
 Cle arly
be fore
 adoles c
V ol
 B irth
 b un
En ter
 narrow ly
 un ite
 mark ers
cre ate
Le vel
r ab
 Ter rit
 P ars
part isan
 collabor ative
Semit ism
 success ion
ian n
c am
 wholes ale
st y
over ty
 Al ger
d oes
J osh
 stren gthening
 just ices
 clean ed
 Bald win
 D LC
ot on
Islam ic
 acknowled ging
 top s
ustom ed
 bol ster
Ult imately
 place bo
 un armed
e a
 north west
 retrie ve
 H ond
 Tr ain
  \xe1
 Kenn eth
is ure
Pr ime
 employ s
 Leban ese
 Scient ific
 super vision
 Ex cept
 G rowth
IS I
 sustain ability
in as
Cre ate
List en
 ind oor
 K ot
 19 39
D F
 super st
C ast
 perfect ion
W ow
ut ton
ucc i
 e ject
w ire
 K oh
 Sky pe
od s
 Budd ha
 cur se
f ight
 dom ination
 comp ares
 refres hing
 can s
Through out
 spe cially
 Coff ee
 nut rients
 meaning less
P y
 lun ar
 ash amed
st ad
 depth s
 dec ay
 Com ing
 C ros
ub a
b ands
 evac uated
l ia
 Fl oyd
ors che
 rel iance
 disg usting
 b idding
 dis charge
 Curt is
 predict s
 hypot hetical
o il
\xe2\x80\xa6 ]
 Beng al
 4 50
 h alls
 My ster
 decentral ized
. ;
ors i
 susp end
 sect arian
 B TC
 O g
els en
c ulture
 overl ap
 honest y
 A part
L ittle
 l ob
 blast ed
 vers atile
11 5
 defe ats
 left ist
ve red
 N ike
 2 20
 sc andals
ch in
 F resh
 r ack
Se ason
 research ing
 regul ator
 perpet rators
 ho ax
IS S
 po orest
 be aches
 P v
L ess
 YOU R
C ustom
 so ber
 k in
 frequ encies
ot he
he ard
 grant ing
 concept ual
Un iversity
 exp ired
 Mons anto
art en
 Re ce
 R ew
 Kurd istan
OS S
 P ra
 pr ince
 de ported
 fut ures
 Buzz Feed
 Jackson ville
per ing
c oll
ant ine
 firm ware
 f rog
 night club
 \xc2 \xb7
 anarch ist
 Z oo
 J SON
M aking
 Zimmer man
 past e
 An cient
 parent al
 Techn ologies
 govern ed
 Ev olution
 lo oming
 Ult ra
 E lder
olester ol
 d os
 tang ible
 sign aling
dog s
ip her
gress ive
 Phil os
 rele vance
ac ial
A cc
 T L
 ramp ant
 Abb as
W estern
 turn over
 id ol
 Ch oice
 to dd
 eval uating
 decl ines
 un cover
 sp ine
 livest ock
 recy cling
 cruel ty
 F ernand
h agen
Jan uary
 judge ment
 extract ion
 bit coins
ul atory
 embarrass ment
 rep s
 Bris bane
is ans
an ol
C ard
th y
 g it
 Any thing
r ance
 Hel en
 accum ulated
 relie ved
 Le ad
 bi ography
 Camb od
 B og
 false ly
oust ic
Yes terday
 Ch arter
 film makers
C redit
 B T
T em
 Ec uador
 stake holders
 McC l
F rench
 p ent
 B il
 gl orious
 er r
 V P
 O val
 tax ation
 Black Berry
 Can ucks
 Mid west
 sex ism
200 2
 frag ments
ol ia
 under went
 g y
 Res ults
 stat istic
 reinfor ced
 diplom at
 air lines
ass is
h ash
right s
 we ights
Sub ject
 real ization
 Ev ents
 part ition
 yell ed
 Can on
\xe6 \x9c
 hook ed
 distract ed
 cl o
 Con c
 Cr us
 w anna
ob ic
vis ive
 E asy
 D S
L ee
 super market
l n
 Viol ence
e ath
 br ass
 He ath
 resemble s
em y
 anal ogy
 sh iny
 H ag
s cient
count ry
 stuff ed
 gl oss
St r
 constitu ency
reg or
 sound ing
 the ology
 divor ced
 Up dated
 Ir ving
g age
secut ors
 mem br
 out raged
 bom bers
 B ened
 indirect ly
 dest abil
\xd1\x82 \xd0\xbe
ge ons
 C ertainly
 j oked
 nom inations
 bur ial
\xc5 \x9f
o it
 Sh ot
 tr ilogy
te chn
 g room
 In qu
gl ass
 Ind ividual
 IS Ps
are ndra
 s ung
,' "
 B row
 o mn
 fundra iser
 s outheast
 bu ys
 Charl ottesville
 And ers
vention al
 La unch
 Salv ador
 S ig
 Per fect
met ry
ak is
 gl ow
 B le
id ate
ring ton
 dr ums
 Plan ning
 L il
 height ened
 comp uls
us p
 11 1
 illness es
 overth row
 fraud ulent
 sell ers
id able
 kidn apping
 util ized
 go alt
 F ans
 belie vers
 cho pped
 19 42
lant ic
IN D
10 4
En large
 indef initely
board ing
ba um
 G ri
\xe2 \x98
arr ison
 Dar ren
im ation
 cur tain
 ac ids
 suscept ible
 ir rational
 K em
 T ier
 M int
 mel ting
a qu
iv o
Further more
 surround ings
 s ang
 h ats
 cease fire
 t apes
Scient ists
 miser able
 like wise
Top ics
 st acked
 ur ine
 pop e
 miss es
O ld
iz a
n umber
 obs ess
12 8
em ade
Th ird
F oot
 S V
the med
 AR M
 pro claim
 catast rophe
ri ly
pl aces
c ified
On line
 st oring
j ah
lud es
 Mot ion
h ig
 unique ly
 remark ed
 --------- -
 lapt ops
 c ros
mark ed
 Rh ode
 char ism
 spat ial
 council s
c od
g as
10 2
 he ights
 ex ile
 com r
\xce \xb5
 inqu iries
 f aint
 195 8
 comment ator
 rec urring
Feb ruary
 \\ (
 Gen esis
qu arter
omet ric
W ater
 j ugg
fr ac
 Pan el
 sur geon
 ende av
a verage
 super natural
enc ia
 shr inking
 J azeera
um bs
F ederal
 John s
 reconst ruction
 T ah
 D ucks
 disp ers
 un pleasant
 dis like
 cr acks
g ae
ig ators
 Ill ust
 Bl ade
 tub es
 Ang ular
D O
 Schne ider
 Protest ant
 G iant
 Des ert
 Ad mir
 Im port
rict ed
 V ers
 dest ined
 author ization
 lif elong
g ents
 N ate
R om
ood y
 oper atives
 Like wise
B rad
 Ex xon
ex per
D ist
 disagree ment
B rian
ush ima
 different ial
Ch icago
 valid ation
 gal axies
 el igibility
 with hold
 off ender
A ri
 Ar s
st ru
a unch
 ch lor
 Kind le
 cont enders
 Wy oming
 overt urned
 an th
 C anyon
import ant
 reg ression
 19 1
 photograp hed
 mit igate
 rev olt
 b unk
 St ur
 milit ar
 mad ness
 pund its
 surviv or
pl er
 design ation
P E
 sc oop
lin er
 Am sterdam
 weaken ed
 out so
d ue
 195 6
 sl ap
 Li u
 Custom s
ir teen
 M illion
im o
 intermedi ate
f ill
B at
 Fort une
 ded uct
et r
L ight
 ch ambers
 Part icip
 sh arks
 prop onents
 D owntown
 H ugh
 Gall up
PD F
 Dav ies
 hon ors
Mart in
 hint ed
 b ounds
C ore
 N ear
 Bar rett
en ment
 inter ceptions
 heter osexual
 Bre aking
 sab ot
 pun ched
 prepar ations
qual ified
 pl ague
 Tre vor
 Econom y
 S hen
 Rest aur
 sh am
 hero ic
 to mb
 Dian e
 wor s
 grab bing
 can vas
 Sh ia
r int
 conver ting
 Rhod es
 Cl iff
l ate
pir acy
c irc
art z
 F REE
 O L
t ar
 fair y
 10 3
 unp aid
S orry
 worth while
ri o
 rehab ilitation
 hel pless
sm all
 Ber ry
e on
ic idal
 Prov ince
A ud
 Through out
 E ston
00 3
 clos et
 E R
 Ch in
ott est
ific ent
 compos er
ot le
 V as
 crus hing
 D iff
iv ism
it ures
 re op
 ex h
L ondon
 t enth
" );
 discipl inary
 d ess
ump ed
 Pir ate
 P rest
 franch ises
P an
 rum or
 T ag
ol ation
Serv ice
It em
 on set
og ene
 po orer
 M ega
 Kit chen
 w olves
G ov
 g el
 forg ive
 Quest ion
 C er
 spec ulate
 lung s
h un
al ong
 un authorized
 F X
 Am anda
 P ierce
ern ick
 conting ent
 Bay ern
 law maker
 draw ings
 reject ing
 Add itional
 ab normal
 W orth
4 50
 C oy
S k
Ex p
 print s
ub s
Qu ery
 US S
N umber
 Nort heast
 coll ar
stand ard
c ule
 pedest rians
 Intern al
v s
ave z
D ue
 aspir ations
Donald Trump
 Colon el
- $
 zomb ies
d eath
 sc outing
 su ing
 land sc
J es
 ad vertisements
 ret ention
s or
 kid ney
 abund ant
qu et
 edit ions
 \xc2 \xa7
 sm oked
 gluc ose
 My ers
ra red
ON D
 infant ry
 spl ash
 g ays
ic us
 cl one
ris y
 v oy
id ad
 imag in
 min erals
 M ate
 di agram
 R ol
 he x
affe ine
 l bs
h ou
ig ger
 reb ound
 install ment
ang ular
 suprem acy
 fall out
 reconc iliation
 H aven
 w inger
 d ur
 Hass an
 F ell
 T as
 M oy
 V ita
 z oo
 ver ification
 Re becca
C ould
 tel escope
 s add
 Gu inea
 play ground
 chance llor
 align ment
m ag
 telev ised
 P am
com b
G ET
 res h
10 3
 co erc
R ather
im an
 effic acy
 comp ilation
ari us
 co herent
 ro gue
 D ance
 t in
 L akes
 195 4
F un
 Stand ing
OU ND
 t sun
osp ace
 W ine
 ) )
st ures
 Qu ant
 Jud a
v able
 draft ing
c ano
 mortg ages
 exc uses
Israel i
t ro
 R SS
 supp ression
person al
 cock tail
 cl usters
 At las
O pp
 dis able
ass ed
 sm ashed
 e ch
f ocused
 south west
 l id
is ch
b ons
 organiz er
 s aga
 H av
 fant as
 P ine
d ies
 W it
r ice
 sc out
um en
 st umbled
 Test ament
 stri ve
 app les
 R ating
umn i
Pr ice
 super star
m ove
 mon arch
 plag ued
 dictators hip
be y
 M oses
 J ak
N P
Cons ider
J UST
udd y
 disag reed
il ib
 circ ulated
 D iaz
 gl uten
 country side
 Com plex
 unanim ously
Calif ornia
 ch orus
AN G
 unders c
 pro claimed
.. ...
 umb rella
 Gu jar
 accus ation
 Coun sel
he avy
 pecul iar
 V ote
tr ade
 mer ged
W all
 Rock y
J ose
 manip ulated
hen ko
 Le icester
 Prem ium
J ournal
Con nect
 dismiss al
 persu aded
 staff er
 accomplish ments
P ER
P ath
 recept ors
t arians
kins on
 t iles
 dial og
 mult inational
 prohib its
  ion
eff icient
 ost ens
 affidav it
\xe3\x82 \x92
T M
 s omeday
 Is is
 comp ression
 Wag ner
 tor rent
 Jack ie
 ener get
 C AP
 intimid ation
gr and
 instruct or
 lear ns
 d ock
 Lyn n
H a
 prem ie
 l ith
 10 6
 m aid
De ath
\xe0 \xa5
 d ots
 Pl atform
pro duction
 be lly
 Hug o
re ne
 contin uation
 Nep al
 Comp anies
rat t
 unl ocked
 protest ed
 mess y
r ish
icult ural
 dr astic
 War rior
 N W
 brew eries
em er
 W on
 19 17
 S ah
educ ated
 l akes
 S R
B er
wart z
 p anc
 by te
-- -----
 Os borne
 Indust ries
 st air
 innoc ence
 b iblical
 V ern
ott i
f iction
 m esh
 n as
 craft ing
ang a
R on
 rational e
 M ist
bour g
 Re venue
in x
 squ at
 brows ing
if ax
 f ade
 head phones
z an
 therape utic
ox ic
 stap le
= '
 l ou
bel ief
 c ant
 S ugar
N early
 Man ufact
 F argo
 N OW
 march ing
 tele com
 m int
 fr inge
 cler k
\xc3\x82 \xc3
Austral ia
 \xd0 \xba
 maj ors
 commod ities
 York er
NAS A
In side
 N arendra
 progressive s
reat ment
ve ment
 b ark
 A zer
Prof essor
 roll er
ed a
real DonaldTrump
S ky
 sh attered
 Rep ly
 swift ly
 freel ance
 Ref uge
 B ast
 se gregation
 interact ing
us ra
 B ag
 ne oc
 kill ers
 ox id
rel igious
 acc ustomed
 IS O
 bad ge
 adjust ing
 ubiqu itous
 und en
 resist ed
 prop oses
 Wat ers
 R unning
 7 50
 p uls
 K ub
u ilt
 pol ite
 C W
w ild
 reprodu ction
 car ved
lling ton
 T IME
od ore
 neg lected
 dest iny
Sec ret
 ind icted
 Z omb
__ ___
 H uck
 H our
 sett ling
ab ase
 Man it
 M ale
 w ax
 R ise
ol iberal
 opp oses
 scan ning
\xe3\x81 \x99
Author ities
 sk ies
10 9
 Str ategy
ij i
 G em
 y a
 decor ated
 Bur ton
 g ospel
 dilem ma
 Kore ans
 advert isers
 sol itary
 L ar
 Fe el
 Euro pa
spe cial
 der iv
 W ave
 Bor is
r ary
 back pack
od o
 poison ing
 T ay
 harm ony
 co hes
 disreg ard
 Inter view
ger ald
 A WS
~~ ~
enz ie
Every body
 accident al
 Luck ily
gener al
 W ald
 Len in
ed ience
 unt o
 Off icials
 sp ider
 shoot ers
ell i
 l iable
 Link edIn
 thank ful
 cross es
 advert ised
 might y
 Eug ene
 rep ression
 emer ges
 Pun j
 Cl aire
 misdem eanor
 Mour inho
oc hem
f acebook
 w aking
 repl ies
at ri
 st d
 ge ographic
 collect or
 Ang lo
io let
 St ark
 Church ill
 Le h
 CON T
 bre asts
 G addafi
 Armen ian
 P RE
 Sh awn
 M AR
 government al
20 2
W al
 st alled
br ing
 Av iv
pher d
AC H
 D re
at ra
cho ice
 Orig inally
In s
 ang el
 V ic
m t
 wild erness
 New man
ci um
 thank ed
 Rel igious
 doub ling
s afe
 Serb ia
 Marx ist
art icle
 Re y
 Per u
 195 7
ET A
 ver ge
 B oot
 sub missions
 N PC
f aced
 station ed
 reprodu ce
 S it
Eng lish
 cyn ical
 St yle
\xc3\x82\xc3 \x83
\x83 \xc3\x82\xc3\x83
D ark
 rem ake
 Americ as
 a ka
 F ury
 I F
 ric her
 195 3
f ashion
te enth
ro b
 sched ules
 exist ential
 tr aps
she et
 R ising
 D y
 download ing
 s or
 weigh s
 br ace
r anking
 par ole
n om
coh olic
 Lab s
 Hung arian
IL E
 m ansion
wh y
S ad
i ya
Ch arl
the ir
M ary
 specific ations
 pir acy
 veget arian
 trans plant
 screens hots
au f
 Ar g
 Per iod
 ant agon
 concer ts
 Dem s
C BC
 system atically
Mem bers
F und
 O UT
yr us
Pl ayer
 unanim ous
 cl utch
 proc ure
 gar nered
or ously
are l
ace y
 gard ens
 D ocker
un ion
ord e
 sur gical
 l akh
 v ow
\xc3\x82\xc3\x83 \xc3\x82\xc3
L ocation
 outso ur
 tum or
ast ics
 Fle et
 psy chedel
 policy makers
 He ather
 dem ocrat
 th riving
 di visive
f est
IN K
 } ;
 earn est
 l enders
 comment ing
og ram
 can non
 p ac
 medic ines
 S orry
 log istics
 Res earchers
 Ham mond
Sund ay
 certific ates
 ir regular
 rem edy
 exagger ated
 char ming
 brand ing
 \xe2\x80 \x95
 down side
 f ried
 Out side
t urn
Gl obal
 was ting
 sent iments
 enfor cing
Any way
 c it
 myth ology
 st igma
 P u
 F eed
Pro v
 inc arn
 M aid
l ove
I ron
 din osaurs
 \xc2 \x97
 < <
cript ions
 f al
ist ence
 s ized
 Rock et
 spons orship
 Re ich
product ive
 architect ural
 For ward
 Congress man
ov y
 blog gers
 Sh ut
Con nor
 Sy nd
anger ous
 ign ores
 commun al
ich i
 am ple
 Nob le
 serv ant
R a
 L enn
 An kara
 short ages
 imp art
he rence
 ( #
z ip
Start ing
 finger print
 T ool
f uel
 tweet ing
 depict ing
 cl oses
 Rap ids
 a rom
 F ri
 architect s
 19 43
 congest ion
m is
 p ads
 form idable
 Syri ans
 ret iring
 Freder ick
 se ated
 anim ations
 A ce
 d amp
 conce al
UC K
 even ly
 Hig her
 Ray mond
 pat rons
 Ne igh
 crack ing
 acclaim ed
 19 55
 ne p
ass er
 loud ly
 Whe eler
 soc ietal
 Leg ion
com pet
ad ic
 dr ills
 Cong o
 path ways
 ar ises
 aggrav ated
 bu cks
 RE AD
 Br ing
 mass ively
ill as
Go vern
 mon key
m oon
D D
 ro oft
 bod ily
 incap able
f ounded
 inject ed
ruct ions
ar is
 Writ ing
b ishop
 ref resh
 m um
 ske let
IC S
 G E
U t
 seiz ures
 envelop e
 Gard ner
y et
crib e
 Kat ie
 A FC
ong o
 plum met
 over c
 Ze lda
ab ee
 P owers
ott a
J ason
17 0
 goal ie
 desc ended
old own
 Ven us
ik ed
 supp lier
 per imeter
 merch ant
 M R
 evac uation
 ref rain
 imp ending
 deep est
 fire works
 C ert
Ne ill
 p act
 grad ual
 last s
 sc ans
W E
sole te
ip es
f ires
 S afe
H en
C am
 S onic
 m ans
 initi ate
 jurisd ictions
whe el
 where by
 Laure n
 Buddh ism
L oad
 anten na
 who pping
en za
cl ose
 Sm ash
 Sex ual
 S ikh
n as
 L anka
 c ough
 RC MP
 un identified
 aver ages
 med d
\xc3 \xaf
 ann ot
 D B
\xd0\xb5 \xd1\x80
op ia
ih il
 Rel igion
gu y
 M Y
 Cons ult
 Off icers
t ical
 pup ils
 indu ce
 Ell en
 Ph ase
 reserv ations
 compan ions
 Com bat
 counsel ing
 Hans en
\xc3\xa1 s
 proport ions
ic ular
 Joy ce
G T
 for ged
 P orsche
 d itch
v on
 de gr
as io
 play able
 He in
priv ate
.\xe2\x80\x9d )
 explo its
 predec essors
 affili ation
 Vict ory
 ir responsible
o T
 truth s
 spect acle
 Const itutional
oh yd
 t apping
 rul ers
 nit rogen
 L SU
Ne ither
 d op
 s ir
 renew al
 rent ed
 fasc ist
ep ernick
se ys
M ond
 opp ressed
 br akes
 sw all
pr us
E st
 bur ger
 F ighting
M ic
 phil anthrop
 L TE
 B rief
orm an
 med als
 b ree
 In come
 Ap ache
 rest ruct
me aning
 cl an
 G ut
 sw ear
 N olan
 sens ory
 Andrew s
 circ ulating
 Minor ity
 Card inal
R ev
 reg istry
 photograp hers
Ex pl
 C ous
m ia
) [
 c afe
t arget
 Sant os
edd y
 prolifer ation
 eleph ants
\xc3\xb1 o
 dem ons
re z
 atroc ities
 S ans
ar us
 G ET
r ue
 transform ing
 stub born
 ge stures
 Ku wait
 19 49
. /
er ner
 ant it
 Sp ark
 T umblr
 Re ality
 v ou
 str ongh
 run time
 high s
 10 7
 f ier
 E manuel
ody nam
 N iet
 B om
ill ions
 o z
U B
 he mp
 disrupt ive
 culp rit
 10 8
ron ics
 speed ing
 ch unks
 mem e
 al ley
ran ch
 aw ake
 un in
 good bye
 flood s
 und o
 Product ions
 success ive
 stri ps
Le ft
 G ent
 Bra ves
 lim bs
 G olf
 Fro st
at ical
Semit ic
is man
 D ifferent
 hal ted
 Ne o
 Med al
 inad vert
 Mah m
tt a
f ig
c reat
l ich
 R aspberry
 mut ations
 and roid
 alleg iance
 C ultural
open hagen
 rem n
 lau ndering
 S leep
 Inspect or
 respect ful
B usiness
 Sav age
 Roy als
 st all
 mut ation
 grat itude
 Super ior
 Celt ic
et ics
 po pping
 sl ope
 En joy
 r ude
ld on
 rev ive
 Cor nell
h on
 expend iture
W ed
\xc3 \x9f
Step hen
p resent
 grab s
 sp ur
\xc2 \x97
 C E
its u
 planet ary
 memo ir
 P resent
 Gar rett
C ru
 Elect oral
 h ug
 Juda ism
 on ion
VID IA
 comfort ably
 sur real
 lim itation
 ---------- -
 C OU
ru gged
 o m
 rest oring
com merce
 vill ains
 K ur
 E cho
 chick ens
 Rel ated
 p oker
pict ured
Tr ue
 W enger
 continu ity
 M add
 D NS
 sad ness
Intern ational
com mittee
 K re
 depart ed
 cor related
 D uck
 pseud o
 undergrad uate
aj a
 tri angle
Des ign
 Med ium
M R
 rob bed
 Gree ks
 Camer a
 harass ed
 Charl eston
 Peters burg
osh op
10 6
 tempor al
 Res istance
\xe2\x94 \x80
r ath
3 60
b ai
 micro bi
 world view
 piv otal
 incorrect ly
 hes itate
ett es
 for c
 except ionally
 authent icity
ric ks
en ame
 F en
p ensive
 su cks
n ick
 profound ly
 inc ub
ap i
 gr ains
 inter ception
 P av
ass ing
 f a
 M T
 ge op
 sl ate
 di ets
 bud dy
 el bow
 11 2
re lease
 disc rep
 simpl est
ver ts
inc re
Mus ic
 sl iding
 disc ern
asket ball
 commer cially
 Al ban
 gener als
 ge ek
 camp ing
 Market ing
 un official
s kin
l ang
M ag
 assess ing
\xe5 \xa4
alk er
ex isting
 hit ter
 s ins
 per former
oh an
 J ail
j ournal
25 6
s ince
 was t
 We ight
 B A
 rem oves
 dis comfort
 T ucker
 Rep orter
 incarcer ation
 Pre p
 resp ir
 T SA
 Har old
idel ity
 am en
 ske leton
Reg ardless
 impe achment
 Pod esta
 l ure
 ess ays
 D uc
 all erg
 Jo an
d ain
 nep hew
ut ory
 L un
it ating
cent ric
B ad
 Ext ra
\xe2 \x97
 hypoc risy
 dr ift
\xe3\x81 \x8c
ew orthy
 execut ing
 spec s
 Techn ical
 Moh ammad
us a
 \xd0 \xb4
 z ip
 inc idence
 equ als
 c ove
 19 46
st ant
os lav
 se af
\xc5 \xab
ik ers
 E z
 work load
 o v
b order
 mis ery
 P ale
 Christ ine
 bl oom
 Pop ular
 spec ulated
 conf essed
\xe2\x96 \x88
R o
 Revolution ary
LA Y
char acter
 per t
 inj unction
 pil gr
 e lic
 re print
 tiss ues
 hall uc
 gra ffiti
 C aucus
act ly
 rain fall
 test osterone
00 000
 provoc ative
 decre ases
 Nic ole
\xcf \x84
 n ud
 Com put
 Sebast ian
 Mult i
Can adian
 Col bert
og o
 Eth ics
any e
 tot als
 Mar athon
 M TV
iss ue
 sit uated
 List en
in th
 prep ares
ON G
 x en
 dec omp
oot er
em on
 bigot ry
 Te en
w on
oy a
 rail road
M il
 campaign ed
 dev ote
just ed
 inflamm ation
 sy rup
T en
 coll usion
 Car p
 rul er
u ously
F ort
W ait
 board ing
 sh ining
 inv aded
 N D
 tend encies
 puzz les
 Dur ant
threat ening
H ard
 Ped ro
 Bl ocked
es que
el o
at z
L P
 Full er
 Am nesty
N F
 Rec ent
ub arak
W C
 b aked
 Strateg ic
 Patri ot
sp ot
 inter vals
 App lication
 st ain
T it
 un aff
 neg lig
 Th ing
cap ital
 not ions
 d \xc3\xa9
 D EA
 M AN
 L EG
 F actory
t im
B ase
 per il
 t abs
 schizophren ia
 N R
 sm ash
 dict ate
 Drag ons
r itional
 vill agers
 new born
 theoret ically
 b aff
auc as
 P oor
 Aud i
 V it
 k ings
 J ab
 But ter
 Ar ist
gl obal
 prol ific
 bo il
 10 9
 re play
 preced ing
 He b
rain e
k top
 \xe2 \x94
utter stock
Will iams
 fil ib
 Zh ang
 S ize
 special ty
 Fly ers
G G
 conflic ting
 S aid
ous se
 D HS
 qu ir
 TH C
 P retty
hard t
g ithub
 out we
 Se vent
OL D
ir ling
 toug hest
 sal mon
c ross
 r app
 pair ing
 Le eds
 coun ters
m oney
but ton
 Arch ives
t aking
 2 30
re b
 P itt
 pref ers
not es
 pro w
het ics
 U AE
 J as
 -- >
 B ug
 bra ke
K now
en h
Go ing
13 5
 V ander
 W itch
 Pat terson
e ast
St ream
10 7
 str at
Never theless
 inex pensive
 neighbour ing
 sur rog
 Not ice
 M echan
r aining
 Z ika
 V oy
 Bul gar
 year ly
 l ocking
 inv asive
 sm iles
 Lam ar
 Ep ic
\xd9 \x88
 f ills
 pl ac
 wh ip
 cl ing
 Inf o
 ex pelled
 cl ay
 Lie utenant
 expl ode
 ur ges
 Sh ore
 pl ight
e us
d ens
 sim ulations
 rot ating
c ats
Fr ance
 \xc3 \xa2
 ins iders
 Lic ense
th ose
 em ission
 Indones ian
 restrict ive
 rab bit
 gig antic
 Fe atures
 Mel issa
 L ac
 Cal vin
 admin ister
 Brad ford
W orks
 pass er
 A id
German y
 config ure
 expl ores
 St am
hib ition
 ste er
 mail ing
 voc abulary
 che at
 S ara
 God s
cr ime
 synt hes
 app end
 at om
 Cu omo
 m as
 guess ing
 R ash
 gr in
w y
 My an
 univers ally
 install ations
 pack ing
com pl
 Gujar at
 c ues
 Wi Fi
 Wh ole
 gl am
be ck
 Gro ve
 Av ailable
Sec urity
 ch olesterol
 imper fect
ym es
C arl
 de port
h awks
 score r
 now adays
\xd0\xb5 \xd1\x82
 gr ammar
 al erted
 condemn ation
 am azed
g ering
b c
 accum ulation
Sen ator
c amera
 vacc ination
 imp aired
bo at
H H
 person a
 h ottest
iv or
 G erald
att a
 pharm ac
 Bill board
g ard
u u
\xc3\xb1 a
F ast
M ajor
 h ates
ket ch
 commercial s
 appl ause
 Fitz gerald
 lif es
 Iss ue
 ther m
aw k
 celebr ates
 development al
. *
 Joh ann
 Ch ang
 post ure
 De V
 defense man
 lect ures
 N om
 Ch avez
 rat ios
 br ink
 polit ic
 a we
 commun ism
 sal v
 disproportion ately
IG N
 law ful
 jihad ists
och ond
j ava
 exp ire
 Bay lor
 ritual s
d uty
 smugg ling
rent ice
 Sol utions
 cris p
Will iam
 d ictionary
sw er
rend ered
 ----------- -
 subsid y
 distur bed
 / *
 insult ing
 NAS CAR
nt on
 Key stone
 Gu ate
 descend ants
 W yn
 Sor os
 remember ing
 Chap man
 undermin ing
 r av
 co ached
ct ica
 W ong
 S ettings
 X ia
 Mar ijuana
Sen ate
 Myan mar
st re
Go vernment
 ch illing
 Liber tarian
 C oul
 D ocument
 G amer
 infect ious
oc ating
a ude
 oil s
C oll
 expend itures
 f ox
 insur gents
 gl owing
 Tw ilight
 rum ored
 Lind sey
 H os
 fo am
 horm ones
ic z
che wan
av ier
 experiment ing
 W ash
 specific ation
 discrimin atory
f ell
 Nic olas
 air ing
EN S
man ned
k ick
 practition ers
 Fl ore
199 9
 construct ive
AR S
l ists
 Philipp ine
 cler gy
 She ikh
 Orig in
r m
 Sche dule
 L B
 tra umatic
 imp uls
 Stephan ie
od us
M ont
 fam ed
 W AS
 mot ors
w omen
t xt
Orig inally
 ext inct
 trans cend
 sle w
 b apt
ext reme
ail ure
S ystem
 defin ite
\xc2 \xbd
 decre asing
S ize
C ase
 fr iction
 Dis play
 13 5
Sim ilarly
 W rite
 config ured
C ost
Com ment
11 2
 Zion ist
 Sh ir
li able
ur istic
en ary
ber ries
 hands ome
h m
 patri ot
 d ynasty
P riv
! ),
 rest s
 c emetery
 Fuk ushima
 ) :
T aking
 Resp onse
 M ental
 Com ments
 pe as
 P izza
 pet ty
 C ain
 pol ished
 A CA
ign ant
 W id
 R id
 m ocked
f at
 municipal ities
is y
 exhib ited
 Ch i
 St rat
T s
 nic otine
 Les lie
if ts
St and
 conf ess
 E ld
 o ri
 C openhagen
 tsun ami
ov sky
 consult ed
 H oney
 fort unes
 Opp osition
AA A
 unre asonable
 jud iciary
 Fred die
 tr act
 t ipped
 W ILL
 Be e
 Stand ards
am oto
 Sol omon
 restrain t
 s ulf
 out doors
r il
ms on
 dwar f
 hist ories
 contrad iction
 Under ground
 SS D
 ins ign
 T yson
 C ed
 revers al
 Psych ology
ob il
all ic
 sand wic
 phenome nal
 tr unk
 bub bles
irt s
 cyber security
iv ities
E ff
T I
 A W
i very
 f aded
uper t
 Has kell
st ro
reg ulated
 disp atched
 sched uling
 l amp
 Ph arm
 interpret ations
 An s
L uc
 15 00
vid ia
A I
 employ ing
P ack
 Te ams
N ov
 Os ama
id as
he ses
 195 2
 L ore
 t earing
f inals
 Fr aser
 plug ins
Pal est
 cher ry
 recons ider
lu ent
\xe3\x83 \xb3
 Cy prus
 Oper a
 Bened ict
r \xc3\xa9
at hing
 mon uments
 instinct s
 Tre nd
 prin cess
 commem or
iov ascular
 Hell o
bro ken
 Tr inity
 Const ruction
 mush rooms
 Ob server
 I PA
 R um
IS H
 geomet ry
 Char acter
 p ains
 Brig ade
 distribut ing
 esp ionage
E conom
.\xe2\x80\x99 \xe2\x80\x99
 rent s
 ra ided
im i
 millenn ials
 grand parents
10 8
 ge ography
 boost ing
 Dog s
 Ast ros
 s arc
 p ins
 N issan
 part nered
 Short ly
 Ass ass
 penet ration
an amo
 fulf illing
man agement
 R i
P rior
 uns pe
 pro g
 outs iders
 blat ant
 sh ale
 pro se
 collect ors
need ed
medi ately
 pass ages
 Non etheless
ess im
c ritical
 E VER
Orig inal
Mat thew
 mand ated
 kind ness
 M alt
 sl ash
 femin ine
o i
am bo
ALL Y
he ne
 red ef
 drag ging
 Valent ine
h ma
c uts
EM A
E arth
 conc ussion
 ecl ipse
 S ke
 supp lements
c orn
 G C
 optim ization
 Sh arks
 discour age
 Det ective
ar ations
P op
 start ling
az ingly
 M K
 Innov ation
 mar vel
 Un known
 Roc hester
 s inking
ter t
 long standing
 Sh arp
. \xe2\x80\x94
 rac ially
z ero
tle ment
sp ir
D M
 strengthen ed
ur g
 home work
 Franc o
 regul ating
 clar ified
def ault
\xc5 \x82
iv ist
 B end
 front s
w agen
 s acked
 Front ier
 read ings
 in mate
 Interest ingly
 G ru
 Un block
 he ars
 ecosystem s
 C V
 conc urrent
 As ked
iol a
 fin anced
 Mig uel
udd le
 manifest o
 sort ed
 excell ence
ip al
sc ill
 n ap
r anked
 right eous
 Arch ive
  iv
 gun fire
 eth ic
yn chron
orn ings
d an
I AN
 bl ur
 stat ues
 mar itime
l aughs
il ot
E ast
T B
aid a
 sub set
 gu iding
v ine
i ating
To o
F lor
 Kir by
 heavy weight
 gen res
 optim ized
 compet ed
 Jav ascript
st en
 19 33
 ------------ -
uc ing
pat rick
 m aternal
 Ex pect
 bl ues
ent on
 Y ug
 Motor ola
 front ier
Pre vious
 jewel ry
 fat ally
 Decl aration
 leg ends
 youth s
 L ords
 oun ce
reat h
 indic ations
 ch ased
 Av iation
l ide
 out going
 h amm
 Art icles
 gate way
 fulf illed
 en cl
 Spot ify
 Fr ances
 ethnic ity
sh are
am my
 d wind
 arc ade
 ab dom
 proceed ing
 Bar on
her ty
 inv oked
 inflamm atory
establ ished
 run way
 O dd
umb les
act ivity
ld om
 Ast ron
 Sch war
 John ston
AN C
 cart oons
inte ll
 pestic ides
 Ch icken
he a
 trail ing
 sp un
 real izes
fil m
J udge
 b ully
U MP
N R
 H ers
 open ness
sh ort
 ad am
 Art ist
 All ied
 L uk
 Jac obs
ys ics
 deploy ing
 pump ing
 works hops
 unle ashed
 Publ ishing
 pen insula
 Is n
 un available
 impl ication
 explo iting
 Pay Pal
 oblig ed
 overr ide
 T ank
mans hip
cept ive
 f eder
 E y
ra its
Bre aking
 organiz ational
 Any way
 t an
 s unk
 Ch art
q qa
 def ects
 t ac
 rock y
 Pre vious
: [
 narc iss
 coh ort
 astron omers
and ro
 pr aying
 Custom er
ach ine
 T ut
 Mon roe
 Ib rahim
ak o
V e
 unexpected ly
 25 6
ov able
og rams
 moist ure
 bur nt
 abrupt ly
 oversee ing
 m und
 kn ives
h ate
 L ok
 hold ings
 Afric ans
 Do om
 par cel
 ch ord
Bl ock
 G ren
 pe aks
 frame works
s end
 parent ing
 ob ese
 f erry
 bl ink
 V PN
 mod ular
bet ween
 yield ed
 V on
ut sche
ing es
H appy
 chall enger
 Sh annon
 un ins
 bi om
 Ar ms
~ ~~
 Con nor
 wor m
ig ated
P rop
 split ting
 F ry
r ag
Oh io
 vib e
 to re
 Ott oman
 termin ation
 ad missions
old en
 visual s
 as semble
 Sc out
 N u
 w ishing
z illa
 Sol o
 K ris
 X in
 Int o
 philos ophers
 Athlet ic
 Stock holm
 Cy cling
 l y
 H il
l ated
eng ine
 ch assis
 notor iously
 Jan et
er ter
Cle arly
 not ify
 summon ed
 plant ing
 label ing
 WATCH ED
 C oc
m ort
k ish
 sn ipp
 mis represent
 L E
f are
oss ip
 ill umin
 h iking
if ty
att led
 spont aneous
 ret ali
 p enny
\xd0\xb0 \xd0\xbd
 AA A
us ually
 k idding
 energet ic
 c av
-- -------
vis ors
 L is
A ction
 grand children
 with stand
 ens l
 decl ares
 con ve
O B
 ceremon ies
 mic row
t ree
 ( (
" ?
 broadcast s
y g
 slog ans
 bacter ial
 fl ipped
 A ber
en f
 Ka epernick
\xe5 \x85
 ev id
 AN Y
... ]
 Mart y
el in
 wand ering
 Com mercial
11 4
 hand ler
 K ol
Jew ish
p ires
R est
 contrace ption
 gener ators
 cos m
 undermin ed
 hom emade
o os
 sil icon
 17 5
 mod s
v d
sm ith
L im
 central ized
acc ount
 bl onde
 demol ition
 Al bum
 per vasive
 f ixture
 Opp ortun
reg ulation
r ha
 s lick
in av
 G IF
 be verage
U k
Event ually
 trig gering
 motiv ations
 exc luding
AN N
17 5
 escal ation
 Bur ger
ocaly ptic
 str anded
 reson ate
 soc ks
 Gold berg
 w izard
 he ap
 Reg ist
it ious
ar ray
 tom atoes
 l ent
uck land
uck ing
 drunk en
c u
 retain ing
M rs
 progress ed
 S ally
 K abul
Cont ent
 p as
 Aur ora
 Sw ord
 b ids
 Sec urities
 Al v
lu ence
 fil ings
l oss
 Field s
 B ath
 sp rawling
 proced ural
 d ental
 S ark
 Mac ron
x imately
 or thodox
p ng
bur se
 \xc2 \x96
rec ogn
V an
 Pengu ins
\xd1 \x8e
 Sc and
/ -
 ob solete
 diss atisf
c ool
 respect able
 H iro
ier i
 C ec
 met ropolitan
 D raw
ut z
get own
 N igel
 sat ir
 O ption
 W ool
 los ers
 Hann ity
 bureaucrat ic
 M Hz
 block ade
 Tor res
 19 14
 dom est
ic ially
 sid eline
m aid
 squ ares
 mis guided
 sod ium
 Sant orum
 pione er
 New ark
j son
 Hor izon
 resist ing
are th
 con quer
S ean
 P ure
 P ixel
 d urable
ag ent
olic y
 bus h
 D as
ud get
 gl ue
V ia
 high ways
 datas et
j ury
 rese ar
dig it
Sc roll
 Moz illa
che t
 reject s
 Rut gers
k an
st own
 a isle
go ogle
 stat utory
 cancell ation
 mat urity
 \xce \xb1
 l ord
 c affeine
h ift
 Guant anamo
 == =
2 40
\xd0\xb0 \xd0\xbb
 Per th
 Lu cy
 restrict ing
 synt hesis
 Ste ele
 Mad uro
 D ew
 ------------- -
on ial
R Y
 imag inary
25 5
 aw ait
 Black s
 R andom
 metab olic
at ible
 und ec
 bal ances
 mon keys
uss y
 F it
 van ished
go ers
g ot
 test ament
 Law s
 assist ing
 respir atory
i ago
 ass im
 cub ic
 stress ful
S ex
Er ror
 se ating
 le isure
 N I
 Advis ory
 che ering
[...]
